<unk>
<s>
</s>
the
,
.
of
to
and
in
that
a
is
for
we
I
this
on
it
be
are
as
have
European
with
not
will
which
by
has
-
an
also
at
(
)
all
&apos;s
would
from
our
Commission
Mr
should
but
must
President
EU
&apos;
Member
Union
you
there
been
States
more
Parliament
their
can
its
these
or
report
Europe
was
they
like
very
do
need
one
what
important
countries
Council
:
so
if
my
people
about
who
other
new
us
because
only
support
time
policy
however
therefore
rights
such
am
economic
now
no
between
when
out
into
up
work
?
those
make
take
some
citizens
financial
many
market
them
against
believe
energy
political
being
social
crisis
were
way
made
than
any
think
today
first
development
;
human
situation
well
order
measures
Commissioner
country
debate
fact
years
future
just
say
agreement
here
issue
even
right
most
how
%
proposal
where
level
same
use
ensure
good
want
Madam
vote
national
possible
cannot
area
could
does
see
public
cooperation
much
world
two
clear
particular
international
both
able
system
why
year
common
question
protection
already
within
voted
had
said
me
under
through
point
thank
still
your
part
over
Treaty
know
resolution
favour
security
change
too
writing
Committee
course
information
without
women
last
place
gentlemen
sector
budget
case
particularly
hope
law
re@@
process
action
Group
ladies
role
necessary
rapporteur
own
example
respect
Mrs
issues
help
put
then
taken
needs
Lisbon
trade
view
problem
number
problems
means
un@@
areas
climate
since
given
better
end
may
strategy
his
/
legal
after
behalf
regard
-@@
he
current
let
rules
in@@
health
give
legislation
institutions
again
welcome
next
before
agree
including
set
global
terms
whether
continue
framework
further
directive
come
services
great
Presidency
economy
different
during
increase
Members
regulation
adopted
provide
products
result
approach
resources
access
food
while
certain
matter
especially
authorities
policies
progress
conditions
effective
position
State
proposals
towards
working
done
basis
going
opportunity
importance
every
used
together
transport
aid
another
opinion
far
based
freedom
implementation
Community
workers
greater
children
fundamental
negotiations
safety
million
forward
decision
United
EUR
state
three
region
essential
funds
specific
clearly
long
making
subject
growth
ask
go
industry
really
efforts
few
call
House
attention
responsibility
data
finally
find
did
serious
account
small
allow
research
once
democracy
impact
major
whole
environmental
yet
present
real
achieve
taking
consumers
become
ted
third
ing
less
regions
society
difficult
principle
standards
fully
DE
step
interests
something
high
education
democratic
programme
reason
internal
wish
money
companies
S@@
Russia
power
proposed
down
s
employment
free
agricultural
each
quality
always
positive
group
least
get
2009
jobs
having
agreements
recent
production
second
look
general
indeed
various
de@@
concerned
s@@
force
key
improve
things
itself
dis@@
following
objectives
best
ting
solution
consider
large
environment
sustainable
life
among
full
back
regional
relations
currently
create
concerns
hand
c@@
words
amendments
rather
often
markets
deal
developing
government
main
groups
risk
significant
fight
context
strong
solidarity
1
management
control
systems
bring
b@@
concerning
regarding
single
euro
results
initiative
2008
Government
package
states
actually
e@@
although
involved
dialogue
tax
en@@
period
points
Directive
her
legislative
competition
funding
interest
transparency
labour
poverty
ts
needed
cohesion
challenges
young
mentioned
costs
ago
majority
available
Fund
es
due
cases
text
quite
start
extremely
procedure
Court
t
programmes
simply
commitment
plan
principles
projects
China
decisions
local
responsible
unfortunately
several
investment
emissions
objective
aim
priority
2020
d@@
y
assistance
months
C@@
nuclear
act
certainly
g@@
activities
appropriate
response
promote
understand
questions
aware
compromise
2010
thus
values
guarantee
concern
instruments
o@@
thing
The
shall
lack
pay
open
project
population
A@@
others
fellow
form
reduce
integration
reform
amendment
doing
true
individual
farmers
FR
2
day
meeting
provided
perhaps
increasing
business
line
enough
violence
times
pleased
consumer
achieved
parties
above
voting
civil
firstly
Turkey
PL
creation
addition
prevent
Affairs
include
potential
innovation
themselves
everyone
play
joint
protect
sure
actions
benefit
increased
remain
billion
reasons
20
t@@
stability
existing
consequences
000
changes
matters
secondly
ed
prices
governments
idea
efficiency
field
seen
regards
crucial
members
f@@
Rights
lead
a@@
off
ar@@
foreign
requirements
comes
move
p@@
using
opportunities
elections
contribution
Republic
congratulate
m@@
10
past
gas
focus
longer
relation
Ireland
excellent
ti@@
procedures
kind
ensuring
develop
2007
B@@
regulations
agenda
Minutes
!
i@@
review
aspects
application
speak
value
agreed
illegal
around
businesses
priorities
w@@
governance
victims
instrument
face
led
across
P@@
apply
reports
ation
equal
according
feel
provisions
soon
show
enterprises
final
special
US
colleagues
might
supported
nothing
mean
criteria
despite
external
Minister
job
little
address
until
thanks
adoption
draft
y@@
natural
M@@
road
practice
success
men
h@@
discussion
competitiveness
living
rule
T@@
makes
moment
meet
Article
strengthen
training
required
organisations
solutions
close
partners
adopt
agriculture
strategic
tomorrow
share
term
u@@
cultural
enable
vital
relating
talking
additional
express
borders
private
throughout
financing
tions
non-@@
n@@
coming
stress
carried
3
balance
reduction
instead
G@@
peace
implement
an@@
E@@
establish
everything
encourage
initiatives
though
k
technical
i
F@@
basic
levels
ro@@
quickly
mention
draw
keep
Greece
week
effect
immigration
fair
care
red
affected
monitoring
answer
fishing
Africa
absolutely
accession
waste
Development
saying
never
powers
effects
committee
creating
discrimination
al
coordination
terrorism
supply
mind
community
implemented
contribute
Roma
ambitious
service
goods
reached
demand
military
con@@
te@@
D@@
accept
communication
sitting
treatment
she
rate
namely
seems
ourselves
recently
cost
providing
long-term
try
talk
pressure
aimed
improving
k@@
huge
o
R@@
price
request
closed
direction
held
asked
media
experience
sectors
ra@@
sense
humanitarian
L@@
reach
le@@
efficient
assessment
partnership
li@@
ers
called
Agreement
promoting
UN
almost
along
effectively
outside
justice
previous
mechanism
conflict
active
included
International
item
direct
lives
established
effort
French
relevant
lot
developed
possibility
movement
PT
medium-sized
December
reality
water
K@@
strengthening
Ukraine
offer
se@@
ri@@
stop
budgetary
nature
m
completely
ta@@
four
e
reforms
five
avoid
ever
combating
reducing
written
message
presented
l@@
air
benefits
statement
family
challenge
implementing
administrative
moreover
furthermore
al@@
supporting
live
light
fisheries
Democrats
la@@
infrastructure
expect
cross-border
technology
remains
calls
Europeans
either
5
di@@
steps
er@@
targets
decided
heard
agencies
er
combat
provides
whose
days
conclusion
co@@
applied
4
summit
received
him
document
nevertheless
found
successful
prepared
capacity
Romania
statements
I@@
short
committed
H@@
giving
parliamentary
Czech
30
ma@@
proper
independent
crime
credit
equality
d
es@@
unemployment
regime
l
President-in-Office
events
2006
model
applause
leave
brought
competitive
Regulation
shown
Rule
Strategy
stage
27
comprehensive
ded
fund
facing
amount
per
de
task
motion
obviously
personal
behind
left
requires
entire
n
tabled
tell
capital
culture
ch@@
SMEs
age
takes
representatives
Convention
minimum
Internet
raised
side
discuss
rapporteurs
ter
unacceptable
cause
introduction
rural
discussions
banks
concrete
8
O@@
technologies
te
created
Barroso
took
visa
tion
recovery
ous
ate
represents
caused
emphasise
death
confidence
border
sources
expressed
EC
paid
th@@
upon
7
Schengen
table
cut
away
activity
measure
Mediterranean
6
over@@
ways
beyond
exchange
oil
economies
receive
doubt
Irish
industrial
or@@
scope
commitments
plans
producers
closely
represent
France
six
ad@@
2011
difficulties
mobility
looking
higher
Party
establishing
pro@@
as@@
asylum
Central
turn
achieving
respond
Sea
RO
rise
precisely
Bank
old
trying
building
mechanisms
aims
June
scientific
speech
hard
am@@
ly
history
extent
wanted
trust
tes
ses
15
is@@
Italy
nor
knowledge
shows
considered
circumstances
overall
Germany
similar
renewable
colleague
origin
migration
ex@@
product
balanced
discussed
th
Poland
weeks
Hungarian
forces
increasingly
12
provision
war
Agency
practices
note
list
total
on@@
integrated
growing
negative
documents
specifically
transparent
carry
stand
related
opposition
im@@
Israel
return
inter@@
g
pre@@
participation
Nations
calling
si@@
allowed
maintain
NL
Iran
recommendations
forms
date
sufficient
lo@@
em@@
early
produce
happen
strongly
status
child
risks
properly
poor
yes
accordance
mis@@
sanctions
for@@
Justice
add
improved
finance
defence
bodies
Social
tri@@
r@@
beginning
v@@
ac@@
Belarus
decide
setting
conclusions
urgent
party
land
introduce
highly
il@@
directly
approved
tra@@
recognise
ent
disaster
po@@
be@@
Vice-President
independence
z@@
complete
begin
ci@@
remember
purpose
discussing
criminal
South
low
N@@
Copenhagen
reading
50
opening
ability
intended
gu@@
duty
threat
laws
MEPs
remind
W@@
r
seriously
conclude
practical
Economic
consideration
manner
tive
goes
added
half
home
annual
p
March
gives
includes
Brussels
target
rest
convinced
alternative
alone
families
leading
Georgia
wrong
require
structural
follow
influence
discharge
propose
V@@
sed
perspective
content
African
member
cu@@
stated
reduced
World
bilateral
mandate
ES
obligations
J@@
Human
connection
recognition
East
9
minorities
passengers
elements
binding
sometimes
burden
adequate
differences
CO2
linked
views
rates
protecting
limited
introduced
mutual
rightly
ated
ating
anti-@@
January
25
regulatory
commercial
gender
establishment
ab@@
supervision
prevention
forget
exist
tackle
dealing
ban
ic@@
t-@@
raise
guidelines
managed
language
speaker
res
known
so-called
met
maritime
build
Kosovo
animal
person
per@@
le
Prime
Charter
name
Christian
patients
ge
acts
treaty
wants
join
damage
vehicles
developments
urge
om@@
comments
aspect
asking
type
goal
ally
useful
institutional
leaders
faced
becoming
situations
hear
he@@
Programme
thousands
income
paragraph
speaking
November
happened
big
Action
vulnerable
travel
debt
consensus
religious
entry
German
persons
hold
organisation
Bulgaria
h
whom
please
payments
investments
expression
Croatia
police
qu@@
truly
parts
closer
reference
at@@
late
approval
ou@@
thinking
fall
event
improvement
domestic
ahead
central
goals
me@@
failure
Spanish
produced
responsibilities
guarantees
critical
former
High
organised
secure
yesterday
press
outcome
send
involvement
Spain
immediate
expenditure
election
putting
Market
EL
informed
happy
Russian
limit
later
partner
ments
inclusion
dangerous
complex
pa@@
ground
voice
dimension
consumption
company
regret
immediately
otherwise
Western
promotion
ones
lost
study
constructive
considerable
chance
Eastern
genuine
choice
functioning
flexibility
May
failed
relationship
demands
Chamber
analysis
Hungary
highlight
signed
trafficking
ready
exactly
plenary
network
sensitive
globalisation
territory
safe
milk
Foreign
liberalisation
compliance
debates
Security
contrary
probably
ling
operation
anything
Chinese
October
institution
...
vi@@
body
British
easy
ds
Trade
Policy
addressed
referendum
facilitate
spirit
ol@@
oral
com@@
Representative
carbon
Partnership
ings
UK
recognised
el@@
shared
mainly
trading
man
intervention
submitted
freedoms
Amendment
na@@
communities
disasters
40
honourable
ity
ideas
sta@@
resolve
worked
pi@@
als
concept
methods
correct
Portugal
res@@
causes
car
standard
elected
defend
CAP
word
positions
ca@@
minority
continues
conference
les
contains
Serbia
authority
ans
suffering
serve
coordinated
HU
instance
signal
evaluation
Ashton
understanding
thirdly
bringing
continuing
People
tool
shadow
North
membership
helping
lower
2@@
ver@@
starting
obvious
India
anyone
millions
healthcare
sign
ce
numerous
happening
earlier
sexual
sa@@
crimes
Auditors
permanent
us@@
attempt
supports
structure
thought
seek
adopting
staff
immigrants
comply
animals
delegation
tic
says
ba@@
effectiveness
consistent
harmonisation
forced
Summit
enormous
else
exercise
territorial
No
thereby
spent
re-@@
method
lines
ha@@
11
ter@@
competence
referred
broad
EU-@@
easier
talks
figures
came
ultimately
bear
ment
unable
stronger
construction
session
sustainability
sides
refugees
personally
enlargement
Alliance
rapid
myself
rating
ten@@
politicians
attacks
simple
heart
greatest
Energy
tourism
statistics
element
it@@
accepted
range
networks
improvements
appeal
ag@@
America
applies
green
2005
cover
ant
WTO
under@@
getting
worth
mo@@
source
judicial
Framework
fish
changed
100
fighting
diversity
18
administration
Pakistan
fraud
accounts
op@@
entirely
monitor
et@@
September
protected
official
SV
directives
2012
payment
test
controls
professional
Baltic
planning
ble
ty
significantly
consultation
scheme
merely
corruption
advantage
Swedish
ding
Italian
lies
ethnic
Ombudsman
fear
granted
encouraging
expected
conflicts
Afghanistan
allowing
innovative
overcome
naturally
bad
transfer
pe@@
month
rejected
votes
sea
alisation
ul@@
labelling
invest
fuel
resolutions
restrictions
recommendation
read
pointed
mission
king
obligation
fiscal
collective
violations
revision
NATO
traffic
parliaments
associated
self-@@
enter
emergency
via
scale
evidence
D
Rules
ste@@
started
credibility
whilst
bi@@
A
ten
sound
refer
interesting
affect
substances
equally
path
acceptable
awareness
maximum
extend
negotiating
ves
intend
Pact
learn
barriers
da@@
welfare
substantial
seeking
operations
moving
emphasis
repeat
modern
2013
factors
peoples
disease
aviation
union
involving
2004
requirement
imports
enforcement
solve
largest
est
employees
spending
ought
Fundamental
strategies
par@@
nations
manage
der
allows
individuals
followed
exploitation
drawn
ters
series
U@@
materials
explain
obtain
Polish
Monetary
office
told
operators
GDP
school
Balkans
subsidiarity
imposed
ongoing
urgently
su@@
ch
vision
impossible
ir@@
loss
seem
covered
respected
space
ratification
va@@
ine
firmly
opposed
laid
comment
introducing
flexible
excessive
average
to@@
carefully
13
tools
c
60
tu@@
Portuguese
II
grateful
Gaza
politics
Organisation
offers
option
gi@@
participate
property
generation
run
penalty
ks
cars
placed
neither
Greek
ist
guaranteed
industries
urban
pension
cooperate
bo@@
April
Health
ations
taxpayers
highest
des
currency
purposes
rail
du@@
Conference
ap@@
Stability
tor
presence
factor
sent
structures
ru@@
initial
Safety
plants
Service
July
worse
safeguard
ry
distribution
delay
generally
3@@
compared
allocated
14
preventing
export
Procedure
CS
reflect
leadership
e-@@
dealt
budgets
SK
strict
Middle
reasonable
definition
Green
totally
terrorist
inf@@
ps
experts
contributions
b
&apos;@@
strengthened
limits
defined
definitely
affairs
sh@@
places
meetings
voluntary
tly
primarily
se
no@@
detailed
capable
Single
ties
fail
citizen
Protection
PPE-DE
century
works
rising
healthy
committees
car@@
agency
planned
proposing
intention
Ms
Kingdom
February
x
ging
G20
continent
sur@@
realise
link
Re@@
ALDE
ise
involve
impose
conduct
examples
campaign
j@@
delighted
abuse
truth
hours
morning
dependent
Japan
External
transactions
operate
80
ne@@
interested
equipment
ve
legally
got
firm
declaration
biodiversity
IT
mon@@
learning
desire
speed
continued
exclusion
degree
buildings
consequently
crises
greenhouse
speakers
ked
court
attack
nation
legitimate
forthcoming
quotas
decisive
ces
board
ning
17
temporary
x@@
ality
operating
Con@@
u
electronic
Moldova
original
Paper
united
undoubtedly
up@@
passed
designed
dignity
500
transition
processes
opinions
Environment
demonstrated
Brazil
treated
floor
topic
skills
contact
representative
actual
sort
Palestinian
resolved
neighbours
hit
attitude
Libya
top
obstacles
difference
technological
stable
operational
lastly
grounds
criticism
4@@
tors
reliable
considering
texts
ct
existence
diseases
keeping
finding
changing
min@@
sub@@
behaviour
applying
subsidies
American
mer@@
danger
concluded
16
reject
man@@
gave
targeted
savings
demonstrate
General
spoke
announced
unfair
traditional
well-@@
ism
pollution
played
peaceful
author
ur@@
inform
Plan
gone
electricity
amending
guaranteeing
Turkish
pass
lose
expectations
Funds
suffer
VAT
valuable
deliver
19@@
st@@
spoken
resulting
highlighted
taxation
wishes
choose
users
In@@
decision-making
prepare
playing
C
lu@@
ance
rec@@
studies
medical
do@@
trans@@
hands
deficit
Strasbourg
medicines
Frontex
preparing
fulfil
Canada
constantly
S
Iraq
taxes
prosperity
proceedings
super@@
enjoy
latest
fa@@
focused
banking
Black
the@@
ates
simplification
monetary
welcomed
contracts
separate
plant
likely
demographic
sovereignty
requested
enhanced
details
neighbouring
decades
assess
mark
coherent
ary
gap
customs
answers
ving
regular
examine
visit
ob@@
manufacturers
bit
Egypt
tan@@
represented
ged
facilities
suitable
languages
accidents
Globalisation
Food
vo@@
insurance
increases
brings
whatever
ic
LT
involves
entitled
migrants
apart
sport
identify
Sweden
Structural
tasks
actively
ence
ies
detail
Z@@
seeing
offered
hence
centre
waiting
parents
worldwide
someone
religion
prove
ho@@
performance
compensation
ed@@
candidate
Baroness
soil
justified
gain
tests
determined
bly
published
sets
launched
surveillance
stocks
maintaining
z
schools
procurement
ordinary
mi@@
Lithuania
latter
hundreds
emerging
appear
tation
minutes
clause
bureaucracy
types
primary
nonetheless
bu@@
cy
proposes
ec@@
et
end@@
tried
speeches
record
noted
glad
facts
ges
contained
au@@
Arctic
successfully
built
Socialist
realistic
har@@
tic@@
appreciate
pan@@
evening
y-@@
so@@
base
5@@
news
Slovakia
0@@
stakeholders
ner
exists
presidency
numbers
extension
wine
save
city
ons
assure
seven
inc@@
war@@
wa@@
surely
determination
biggest
sovereign
ni@@
ically
identity
happens
EGF
saw
charges
re
mass
gra@@
co-@@
Solidarity
phase
investigation
il
fying
bearing
abstained
version
diplomatic
proud
prisoners
Adjustment
endorse
col@@
tackling
severe
ration
raising
felt
We
Asia
phenomenon
advertising
FI
unless
stay
remarks
pursue
Mar@@
Latin
submit
raw
grant
adapt
23
zone
succeed
release
addressing
function
amounts
reply
incentives
cuts
Ministers
players
passenger
opened
complicated
affects
ig@@
ge@@
en
officials
extended
confirmed
check
por@@
Research
feed
disposal
Thursday
reaching
debating
ministers
farming
amongst
Financial
men@@
housing
friendly
conducted
weapons
suggest
listen
finances
cra@@
relates
meat
arrangements
significance
proportion
material
massive
identified
normal
collection
R
Commissioners
cities
intentions
double
airlines
ven@@
size
ga@@
West
threats
suffered
affecting
achievement
Com@@
ys
wide
define
arms
Cyprus
societies
science
ms
condemn
understood
driving
Greens
honest
extreme
bank
sen@@
149
engage
PSE
advance
Tunisia
ke
politically
courage
drawing
wealth
restructuring
demanding
Burma
options
launch
isation
24
preparation
experiencing
geographical
fi@@
Bosnia
.@@
profits
intellectual
ering
depends
and@@
Macedonia
wait
producing
friends
Ma@@
negotiation
duties
dly
leader
fishermen
6@@
moral
exceptional
condition
closure
tion@@
ors
contributed
sensible
register
ents
accident
19
sufficiently
paying
multilateral
holding
Agriculture
paper
largely
fields
our@@
assist
Netherlands
ACP
worst
worrying
supervisory
acknowledge
qualified
centres
applicable
Fisheries
proved
occasions
certainty
absolute
previously
harmful
prior
enhance
daily
ali@@
nationals
enabling
decent
careful
Transport
é@@
eastern
competent
online
digital
claim
becomes
helped
chosen
arguments
Civil
round
clean
boost
Growth
youth
species
greatly
financed
cor@@
cing
ambition
universal
leads
intends
association
approve
substance
proceed
negotiated
near
ins
generations
gen@@
experienced
beneficial
visas
rich
mobilisation
f
dairy
attempts
simplify
poorest
med
dispute
airports
regardless
Pro@@
requests
emission
Christians
schemes
core
cle@@
neighbourhood
explanations
Y@@
nearly
constitution
willing
precise
knows
ture
el
declarations
70
issued
urgency
lessons
confirm
losses
competences
applications
appears
E
21
foundations
acting
wider
southern
Report
room
granting
ce@@
brief
New
ver
ously
ness
appropriations
Al@@
stock
sion
accessible
possibilities
exports
Haiti
Cooperation
forest
pensions
violation
ships
go@@
encouraged
unity
den@@
Sudan
Regional
remove
proof
emphasised
ship
regrettable
ck
um
prison
credible
ying
speculation
depend
alism
regulated
mandatory
kept
formal
essentially
eliminate
running
post-@@
fin@@
claims
charge
drivers
clarify
resulted
pillar
foremost
follows
harmonised
economically
students
regulate
physical
carrying
honour
heavy
figure
coal
supplies
bureaucratic
authorisation
acquis
w
spread
sp@@
recession
Euro@@
poli@@
ised
As
historic
spite
ck@@
ably
penalties
constitute
allocation
reinforce
oppose
loans
ke@@
fruit
sharing
ran@@
eight
signing
employers
absence
Act
satisfied
plays
head
coordinate
parliament
ire
hearing
governing
correctly
chain
assume
utmost
underline
leaving
described
historical
fine
estimated
environmentally
constitutional
reflected
impression
unnecessary
ful
Internal
checks
uniform
tory
negotiate
links
ff@@
doubts
Korea
wage
somewhat
Israeli
Gu@@
fairly
aside
self-employed
insist
argument
succeeded
possibly
Atlantic
reaction
easily
contract
2000
tragedy
missions
Assembly
legitimacy
investors
interpretation
lay
indicators
200
below
Heads
treaties
prospects
offering
genuinely
difficulty
De@@
vessels
timely
solely
concentrate
approximately
textile
supposed
ratified
necessity
fo@@
extending
constant
rea@@
ical
showing
replace
referring
undertaken
spend
qualifications
highlights
contributing
completed
aring
Sarkozy
22
amended
pu@@
deep
wonder
seeks
ph@@
codecision
ced
ar
Protocol
Danube
went
cancer
NGOs
sorry
restore
pre-@@
standing
sc@@
import
Public
tobacco
rapidly
ingly
front
willingness
turning
strength
stands
ends
ALE
Verts
weak
tragic
none
occasion
debated
compulsory
out@@
uni@@
ren@@
Control
iting
imported
d-@@
biofuels
26
relatively
afraid
stance
piece
deserve
convergence
Neighbourhood
M
viable
track
representation
expensive
complaints
clarity
Investment
7@@
ris@@
react
dynamic
revised
privacy
intensive
forests
transitional
creates
Free
mb@@
detention
Constitution
toys
reiterate
regarded
obtained
powerful
lasting
dependence
Belgium
unemployed
courts
considers
birth
F
ty@@
summer
ot@@
ls
contain
consistency
1.@@
widespread
restricted
educational
ched
alongside
lin@@
las@@
journalists
etc
briefly
turned
Authority
tangible
heritage
In
Belgian
older
ising
elsewhere
civilian
Herzegovina
populations
intelligent
fied
efficiently
saving
ours
female
deserves
deeply
Employment
2002
warming
ches
2003
storage
resource
promised
letter
P
short-term
permit
count
reas@@
feeling
believes
belief
abroad
vast
suggested
pri@@
flows
extensive
armed
31
worthy
tically
remaining
recall
maintained
gre@@
background
anniversary
advantages
Women
ECB
partly
indicated
id
deaths
deals
assets
Thank
An@@
we@@
waters
roads
Britain
stressed
respects
obliged
necessarily
inequalities
causing
satisfactory
heading
hal@@
expense
determine
System
stake
hopefully
constitutes
afford
Romanian
8@@
importantly
EIB
universities
pesticides
can@@
pla@@
Slovenian
Home
90
ved
suggestions
regimes
occurred
extra
entered
consent
pen@@
openness
mar@@
break
push
freely
vehicle
revenue
preserve
meaning
ignore
accompanied
Slovenia
thorough
thanking
gh@@
ageing
Iranian
warning
favourable
uncertainty
mistake
ger
commit
Iceland
sing
quota
profit
notably
inadequate
focusing
drafting
Socialists
Arab
scrutiny
puts
hi@@
conver@@
bed
al-@@
wor@@
insufficient
card
struggle
presentation
cy@@
electoral
eye
cutting
Legal
whereas
eyes
-based
Year
Left
assessments
Schulz
Le@@
Joint
tor@@
patient
v
rely
reli@@
outermost
mu@@
ned
fy
exception
defending
protectionism
oo@@
This
Austria
10@@
talked
opposite
maternity
Islamic
reporting
Dutch
reported
nobody
congratulations
Budgets
smaller
integrity
broader
adaptation
Montenegro
ve@@
tonnes
meant
managing
ess
Consumer
Centre
2001
processing
destruction
contra@@
communications
beings
alcohol
respecting
quote
organise
grow
choices
Millennium
satisfaction
purely
minute
marine
connected
tape
st
disabled
Li@@
75
142
inhabitants
imposing
sive
frequently
arise
accordingly
declared
collaboration
Galileo
terrible
la
everybody
considerably
Petitions
pipeline
door
Zimbabwe
Co@@
removed
investing
faith
listened
funded
couple
ambitions
Soviet
-related
welcomes
suspended
rou@@
repeated
providers
expansion
delays
actors
GUE
transatlantic
promises
fast
drugs
consequence
2015
killed
fe@@
bro@@
IMF
1@@
sake
reflects
perfectly
lie
ta
san@@
marking
Day
transposition
stra@@
shortcomings
marketing
sending
imagine
generate
ban@@
Cuba
failing
da
tr@@
reconciliation
gradually
falls
stations
posed
USA
retain
kinds
extraordinary
Stockholm
Europol
territories
promoted
ownership
helps
consolidation
campaigns
0.@@
sum
railway
partnerships
joined
indicate
advice
Office
two-@@
solid
motions
dramatic
Tibet
EC@@
spe@@
os@@
one-@@
implications
buy
alised
s-@@
mental
amend
trend
28
missing
humanity
combined
became
ages
Rural
Northern
medi@@
Parliamentary
NGL
unique
receiving
ple@@
mobile
ecological
wages
modernisation
losing
jointly
ines
himself
began
á@@
intervene
facilitating
deadline
Ro@@
island
fewer
dumping
coherence
percentage
farms
che@@
cha@@
airport
torture
ped
Presidents
Constitutional
undermine
sphere
lis@@
inflation
repeatedly
creative
bar@@
London
visible
team
ler
fuels
fire
drafted
routes
controversial
&amp;
refers
occur
larger
dossier
covers
Mexico
reconstruction
periods
interinstitutional
hu@@
expressing
arising
O
confident
class
cen@@
Liberties
whereby
violent
simplified
seekers
route
redundant
promise
beneficiaries
Caucasus
port
picture
ws
woman
nine
medium
eri@@
basically
Latvia
pleasure
own-initiative
floods
ended
collapse
burdens
35
popular
elderly
multiannual
falling
endorsed
died
timber
proven
mistakes
maybe
demonstrates
blame
achievements
Goals
threatened
strike
compli@@
productive
Treaties
resolving
models
ists
informal
expertise
arrest
Services
work@@
Information
Association
300
vocational
tin@@
sugar
radical
explanation
commen@@
citizenship
admit
wing
television
house
enti@@
coastal
battle
abolition
SIS
Industry
tional
sincere
interim
infringement
treat
signs
ping
undertakings
respective
id@@
fires
ensured
DA
trial
terrorists
ll
cted
consultations
afternoon
National
showed
perfect
imbalances
forum
army
Time
victim
unions
os
composition
accountability
tical
hor@@
cies
austerity
SL
surprised
secret
excluded
directed
Democratic
Communist
voters
third-country
recognises
prevented
ine@@
exclusively
unprecedented
reductions
protocol
micro@@
ki
entrepreneurs
sincerely
safeguarding
items
freight
extra@@
def@@
Van
Congo
troops
stages
flow
accounting
marks
joining
harm
fies
ending
compete
clearer
abuses
underlying
sup@@
pose
integrate
engaged
disagree
answered
Doha
systematic
ths
stabilisation
settlement
presenting
map
evaluate
alise
2007-2013
examined
Albania
pilot
land@@
condemned
Obama
ruling
ka@@
declare
conf@@
cate
War
planet
internet
drive
down@@
coun@@
BG
traditions
tary
solved
patent
hazardous
fications
employed
alising
Mo@@
2.@@
.&apos;
undertake
inclusive
ia
homes
foundation
deficits
advanced
usual
sight
responses
observed
civilians
candidates
Liberals
inside
entities
conventions
born
tuna
contacts
MEP
29
rescue
poses
lifelong
i.e.
forgotten
firms
Hamas
tribute
spring
ports
justify
enables
decline
transit
sought
motor
instability
foods
Wednesday
Cohesion
code
Ch@@
mother
Budgetary
safeguards
rs
ring
ming
facility
emphasises
ching
over-@@
ined
disputes
closing
Before
unanimously
tered
slow
livestock
hardly
appointment
USD
threshold
stu@@
multi-@@
invite
imperative
hunger
han@@
errors
era
ency
disappointed
covering
wording
night
drug
contributes
attractive
ECR
sale
len@@
hopes
consistently
ants
Sch@@
net
liberal
ive
gambling
defining
bur@@
topics
stimulate
shape
repression
incentive
image
ad
reservations
regulating
makers
ko@@
belong
15@@
tures
gross
acted
subjects
speci@@
statistical
names
illegally
Common
tolerance
subsequent
procedural
pp@@
organ
hom@@
finish
earthquake
aircraft
OSCE
compromises
clarification
cation
bri@@
alarming
August
21st
valid
prospect
ens
delegations
section
regularly
ne
ian
dra@@
autonomy
accurate
van@@
residence
pping
participating
listening
judgment
ear@@
widely
usually
tal
smart
representing
observation
mp@@
lacking
exposed
crops
weight
tw@@
stringent
shares
released
pra@@
orientation
ju@@
cul@@
bility
ars
Ladies
subsequently
sites
ish
gri@@
divided
ction
counter
20@@
simplifying
president
off@@
disadvantaged
design
characteristics
adequately
Slovak
maintenance
ice
ently
advocate
wh@@
tens
ratify
persecution
nation@@
dness
cope
controlled
recommend
looks
-up
vely
equivalent
vari@@
serves
post
ft
entering
draftsman
dioxide
outstanding
ignored
holds
functions
ensures
block
potentially
manufacturing
investigations
ishing
error
unfortunate
sold
relate
minister
helpful
begun
win
travelling
shortly
search
refused
founded
dy
division
disparities
corporate
adapted
Labour
occupation
exchanges
envisaged
14@@
promotes
preventive
oli@@
breach
ber@@
tough
tively
strictly
soci@@
prime
mobilise
ker
fourth
He@@
low-@@
fu@@
Sta@@
De
sions
redundancies
micro-@@
interference
gradual
engagement
ble@@
approaches
rare
pays
fra@@
br@@
T
Estonia
raises
player
impetus
horizontal
discipline
cross-@@
comparison
looked
long-@@
incorporated
convention
Innovation
suggestion
programming
false
similarly
resistance
placing
p.m.
large-scale
banned
English
EP
Cas@@
visited
tations
sha@@
presidential
follow-up
criminals
category
categories
White
Switzerland
va
tar@@
organs
medicinal
liked
judge
ils
high-@@
fundamentally
experiences
everywhere
cent
Cor@@
Climate
stick
lor@@
learned
foodstuffs
ele@@
strive
lation
immunity
flights
fication
tradition
spectrum
seat
robust
parallel
pact
multi@@
lesson
harmonise
Institute
Ar@@
recognising
ners
gained
evident
Nabucco
nu@@
monitored
logical
heads
ening
Ukrainian
undertaking
solving
punishment
liability
iled
exclusive
Olympic
Me@@
renewed
refuse
outlined
infrastructures
containing
avoiding
acceptance
16@@
transfers
stand@@
ita@@
den
billions
variety
familiar
continuation
authorised
OLAF
tics
restrict
messages
catch
bound
Ne@@
tives
researchers
label
hundred
features
conviction
Kyoto
wi@@
que
protest
initiated
convince
conservation
9@@
tur@@
reserves
rejection
petition
on-@@
invited
compatible
Malta
tru@@
tre@@
observe
ide@@
hour
globally
PPE
í@@
warmly
tonight
permitted
fresh
It
2014
quick
jurisdiction
high-quality
fails
crimin@@
cal
Area
yourself
resumed
pped
friend
fleet
exemption
destroyed
dec@@
UEN
Tourism
ET
subjected
considerations
comparable
adverse
withdraw
volume
movements
initially
excuse
disabilities
chemical
abortion
Balkan
&quot;
vel@@
socio-economic
marked
lating
ities
exceptions
euros
enshrined
besides
Chairman
Barrot
Barcelona
sectoral
scientists
preparations
moved
keen
fate
enhancing
acknowledged
Southern
PNR
smoking
recycling
in-@@
foster
decade
consolidate
pursuing
minors
inequality
focuses
diver@@
conciliation
breaches
autumn
Morocco
tal@@
slightly
references
realised
pursuant
pos@@
murder
elimination
Barnier
vate
uses
rela@@
reflection
lists
ya
th-@@
sadly
restrictive
passing
mor@@
desirable
Reform
Culture
swift
pe
mes
innocent
faces
agrees
aff@@
retirement
pursued
hed
explained
dependency
cting
coordinating
chapter
Sy@@
Mercosur
Criminal
13@@
unified
thousand
sely
obtaining
grants
findings
faster
eurozone
disproportionate
dictatorship
badly
Prize
Guantánamo
Declaration
unanimous
stopped
igh@@
fortunately
Rome
17@@
stresses
mothers
meets
destroy
tering
tackled
ric@@
replaced
platform
onto
hand@@
Luxembourg
Chad
sentence
fossil
estimates
disastrous
dead
counterfeiting
component
arrive
analyse
train
surrounding
sports
seas
sad
part-session
ological
ing@@
Somalia
vis@@
tis@@
outset
modified
invested
intergovernmental
hing
eventually
damaging
cated
bus
aries
argue
wind
pres@@
piracy
ow@@
limiting
irregularities
havens
exploit
cycle
avoided
Monday
reinforcing
misleading
mere
executive
distance
alternatives
activists
Chair
timetable
shame
responding
pretext
liber@@
irrespective
indication
der@@
cheap
announcement
Malmström
Ad@@
withdrawal
unlike
tro@@
story
pragmatic
fit
diversification
ari@@
Beijing
fallen
equ@@
demonstration
delivered
contrast
concessions
availability
Gulf
Finland
45
pressing
pharmaceutical
pace
encourages
chemicals
brutal
Equality
Dublin
reciprocity
lan@@
generated
emerge
desired
dangers
camps
assessed
Euro
Agenda
yed
removal
ood
inspections
ideal
devoted
constituency
borne
Process
18@@
tionary
son
sell
sales
die
bing
attra@@
atmosphere
assessing
a-@@
Small
professionals
meanwhile
ics
donors
dicta@@
ders
waiver
presents
appointed
an-@@
College
zones
suppliers
registration
meantime
internationally
host
east
assurance
aiming
Rompuy
Bulgarian
served
lity
fulfilled
ese
driven
Coun@@
B
vers
transaction
pluralism
personnel
participants
handling
examination
enterprise
cur@@
consolidated
congratulating
apparent
ser@@
rigorous
relationships
likewise
judgments
hy@@
diverse
apparently
Denmark
12@@
wherever
judiciary
fought
alities
ven
telling
sin@@
residents
registered
precarious
mas@@
incomes
game
direc@@
cultures
cro@@
criticised
audit
associations
twice
stream@@
socially
shipping
recorded
rational
purchase
proportionality
ill
feature
everyday
pillars
eds
Special
Qu@@
Palestinians
Geneva
trends
transferred
soldiers
revolution
pollu@@
indicates
fac@@
energies
ard
accused
substantially
stricter
ly-@@
ise@@
dying
detriment
democratisation
tari@@
productivity
examining
toxic
sums
struck
sit
shift
securing
gs
fears
concentration
survival
safer
pat@@
offences
lobbyists
arrested
DEM
Code
ts@@
reinforced
pending
fourthly
essence
clo@@
Belarusian
55
tionally
ral
pun@@
investigate
exploited
enforce
Palestine
exp@@
constitu@@
clauses
IND
Business
punished
protests
progressive
obstacle
mix
justification
ining
fishery
expert
Pa@@
Muslim
voices
traceability
towns
shortage
emerged
sympathy
stri@@
reverse
prefer
fragile
conscience
ber
automotive
tries
sti@@
serving
observers
lam@@
gan@@
ethical
concluding
aspirations
accountable
Lu@@
Education
400
wise
seats
eliminating
addresses
Sri
zero
won
transmission
sers
root
ish@@
explicitly
expand
ene@@
empty
dear
Seventh
Or@@
Bu@@
Alzheimer
touch
ligh@@
globalised
enabled
ator
ana
albeit
ach
Taiwan
First
197@@
thoroughly
ref@@
pl@@
oc@@
non-governmental
criticise
broadband
attached
ES@@
Ac@@
witnessed
selling
recommended
offices
northern
mines
laying
infringements
ici@@
heavily
except
corrections
constituents
chair
certification
carriers
absurd
abstain
2050
workforce
systematically
suggests
repercussions
redress
notice
interventions
incidents
fines
diplomacy
Rehn
tual
tom@@
satellite
openly
hedge
establishes
distinction
complexity
atten@@
acti@@
Syria
Darfur
preservation
inde@@
copyright
bonds
amb@@
ILO
Afghan
tend
squ@@
reviewed
dro@@
blue
set@@
ron@@
publication
monopoly
liquidity
initiate
incorporate
frankly
donor
creativity
Yugoslav
Working
En@@
1999
spo@@
concludes
Progressive
victory
tho@@
socialist
mine
democratically
Question
-free
western
tensions
prosecu@@
moratorium
mining
middle
isolation
flag
Per@@
threatening
removing
remained
located
lau@@
integral
ind@@
far-reaching
delivery
capabilities
bul@@
Cancún
Bali
streets
revi@@
ns
logic
ir
genocide
denied
adapting
Martin
EEAS
Board
.5
ye@@
totalitarian
stating
south
silence
ouring
leg@@
identification
gaps
drop
collected
civilisation
0-@@
weaknesses
requiring
race
pal@@
issuing
innovations
duly
defenders
continuous
compla@@
channels
capacities
ase
arch@@
precedent
mer
learnt
lated
ideological
electric
Paris
Ex@@
whatsoever
fil@@
distributed
dep@@
by@@
applaud
198@@
wonderful
rid
refugee
practically
pointing
location
cal@@
assembly
wake
preliminary
inevitably
cks
career
book
article
La@@
provo@@
deciding
connections
attempting
accepting
Madeira
translation
ti
recast
poorer
organising
mostly
forestry
equity
cl@@
backing
asset
Na@@
Federation
Change
65
university
symbols
opt-out
og@@
non-discrimination
mid-term
mat@@
ma
deforestation
dates
consulted
bio@@
advances
unilateral
stimulus
length
irresponsible
hil@@
gases
ak@@
Gender
EM@@
Car@@
stabilise
reproductive
normally
ken
halt
explo@@
expecting
doub@@
debts
commend
abandon
Azerbaijan
95
survive
responded
pon@@
flooding
fif@@
entails
disadvantage
defended
compe@@
buying
Games
Conservatives
units
une@@
sis
railways
principal
ily
identifying
shel@@
quarter
minor
low@@
hoped
guide
dedicated
cre@@
authors
attend
adjustment
Mugabe
Christmas
š@@
wave
sole
skilled
separation
remit
problematic
input
excellence
cru@@
blind
anywhere
Decision
val
swiftly
suspension
reco@@
radio
owners
mutually
gets
bus@@
ative
To@@
Par@@
Lukashenko
testing
returned
ratings
knowing
jo@@
inspection
imag@@
high-level
deadlines
combination
workplace
tened
straight
sex
renewables
mil@@
detrimental
corresponding
Technology
Pacific
wholeheartedly
thro@@
symbolic
refusal
prote@@
paramount
ka
34
extremism
Functioning
Bel@@
van
ther@@
teachers
sheep
severely
publish
publicly
profound
praise
perform
footing
deployment
ceiling
aquaculture
ands
allowances
worried
vitally
ultimate
radioactive
prerequisite
ots
managers
decrease
characterised
underlined
symbol
prescri@@
leaves
km
in-depth
gue
completion
cep@@
Youth
Tibetan
Moscow
website
trialogue
salaries
resettlement
neoliberal
indispensable
farm
demonstrations
black
asing
adding
Sa@@
0s
ves@@
shi@@
reminded
flexicurity
confirms
backed
back@@
update
suff@@
sel@@
governed
fre@@
customers
convey
cast
automatic
airline
abandoned
Nor@@
GA
Erasmus
ö@@
selection
reserve
modes
isolated
iring
houses
evasion
divide
decommissioning
belonging
Mon@@
Caribbean
scenario
pac@@
journey
inappropriate
counterfeit
uphold
ton@@
tful
notes
incident
head@@
electrical
earmarked
differently
constraints
bill
articles
appropriately
substantive
ress
recover
ram@@
momentum
lays
killing
insecurity
fairer
endeavour
backs
arrived
N
Euro-Mediterranean
Americans
transnational
synergies
strengthens
sections
purchasing
paragraphs
ong
notion
facilitation
capitalist
bel@@
allocate
Scotland
whenever
top@@
termin@@
sustained
revise
mp
introduces
entrepreneurship
depending
ards
Reding
Pi@@
Network
tariff
inter-@@
delegated
ctive
confusion
caught
surprise
star@@
secondary
remedy
ished
hur@@
grassroots
fulfilling
frequent
condemnation
signals
producer
missed
handled
guided
fifth
dered
bat@@
unanimity
tou@@
moves
inten@@
indirectly
gg@@
fla@@
elec@@
destination
delayed
costly
assured
Secretary-General
Sakharov
é
with@@
threaten
qui@@
preserving
lowest
ja@@
gener@@
enjoyed
criterion
await
Verheugen
Second
+
telecommunications
read@@
operates
occupied
neighbour
macroeconomic
guilty
foreseen
ences
des@@
capitalism
Japanese
ACTA
tle
simpler
preferred
preferences
pic@@
migrant
ids
gy
fill
enforced
disability
co
bl@@
teri@@
sends
proves
hes
grave
financially
asser@@
affordable
advocates
Si@@
Inter@@
Instrument
Bureau
Ab@@
underlines
supplementary
pur@@
impunity
ham@@
dic@@
devastating
ators
worker
warm
title
she@@
returning
restricting
renewal
racism
pul@@
officially
mal@@
industrialised
grown
fixed
controlling
cement
analyses
Tuesday
viewed
tain
runs
regulators
realities
pr@@
imperialist
eli@@
dimin@@
books
automatically
Statute
48
1990
violated
tioned
soft
protein
hel@@
formally
deprived
deli@@
ast
arrangement
appalling
Po@@
Director
Burmese
ü@@
wars
pro-@@
oh@@
nur@@
launching
dream
counting
architecture
advocated
ward
tle@@
sessions
satisfy
ement
drinking
all@@
agents
Stream
EU-wide
oun@@
earth
components
Asian
150
wards
understandable
standardisation
referendums
ra
mise
indications
equipped
emo@@
deny
dan@@
clarified
breaking
volatility
ure
tant
priva@@
originally
officers
noise
handed
girls
ces@@
boosting
blocked
Washington
Round
Georgian
wit@@
tak@@
scheduled
rap@@
overwhelming
kers
ik@@
formed
flight
cross
credits
complement
comitology
arises
Eurostat
visibility
town
tariffs
tals
ss@@
sli@@
regrettably
proactive
itting
incidentally
geo@@
dimensions
database
cli@@
ading
Yemen
Nordic
Au@@
tabling
remark
ety
encouragement
conducting
Amendments
updated
undermining
trans-European
sy@@
speculative
run@@
remarkable
relief
protectionist
linguistic
hol@@
gies
cooperating
bigger
anti@@
abolished
Serbian
Law
Guinea
DG
36
ur
structured
revenues
opponents
lar
impacts
demanded
cure
broad@@
academic
Ta@@
Se@@
SWIFT
Maritime
terror
stabilising
restriction
privatisation
monopolies
lea@@
inland
energy-@@
ecosystems
demonstrating
combine
are@@
Yugoslavia
Venezuela
Merkel
Lebanon
III
transportation
summary
sho@@
pushing
ple
permits
painful
obesity
north
long@@
indigenous
ili@@
fairness
assisting
appreciation
addi@@
Lithuanian
Fran@@
Foundation
ä@@
wind@@
vigilant
taxpayer
reassure
ole@@
noticed
ill@@
hoping
finished
circum@@
autonomous
alleged
Tra@@
Norway
Austrian
successes
rape
postal
legality
ki@@
indirect
fleets
dig@@
concepts
communist
HIV
Ber@@
-year
well-being
unresolved
owing
observations
iz@@
internally
donation
cheaper
aged
Recovery
Brok
vegetables
sen
liberties
lending
execution
evol@@
deepening
contractual
complaint
chapters
cas@@
blood
biological
accelerate
AIDS
undermined
transformation
profitable
packages
deterioration
delicate
contamination
Ri@@
was@@
tting
teaching
tate
positively
ineffective
devote
coast
Mal@@
Ferrero-Waldner
3.@@
ther
tel
sus@@
supplied
overcoming
iling
ff
fav@@
exit
exclude
eding
eating
dom@@
cofinancing
claimed
character
arbitrary
Danish
wide-ranging
virtually
viability
tative
suddenly
revealed
processed
plus
petitions
perpetrators
nationality
ina
exact
eve
differ
coach
by-@@
Ossetia
EU-Russia
250
signature
postponed
no-@@
listed
generating
functional
forth
emphasising
delivering
bluefin
blocking
approving
Tajani
ust
tivity
teen
pick
ou
mixed
integrating
exceptionally
determining
conventional
circu@@
cer@@
ce-@@
broken
abolish
Michel
Global
ESF
ze
thoughts
textiles
strange
pursuit
highlighting
displaced
cri@@
cking
brea@@
affir@@
Ju@@
Ba@@
west
tiveness
resort
radi@@
quantity
prof@@
pel
nationalism
lining
ght
eva@@
doors
conce@@
broadcasting
boo@@
asks
Democracy
wished
throw
tested
struggling
sees
risen
reg@@
passport
nowadays
modernise
law@@
founding
flood
enthusiasm
discriminatory
challenging
bot@@
ER@@
CE
05
visits
shipyards
offence
nic@@
iti@@
frameworks
econom@@
allies
agreeing
EEC
CFP
yer
ty-@@
short-@@
lic@@
legisla@@
interven@@
experim@@
concentrated
ade@@
abilities
U
Indian
EPAs
Conservative
Coelho
weaken
rant
multiple
mili@@
merit
manifes@@
lobbying
judges
describe
cles
chose
assumed
Nice
Frattini
Communication
Asylum
wasted
tun@@
sooner
slowly
sentences
scandal
match
hide
courses
Th@@
GMOs
Berlin
withdrawn
whe@@
upcoming
realisation
passports
pas@@
of-@@
minds
meaningful
legislators
guidance
gratitude
fruitful
fashion
famous
existed
communicate
cked
chairman
biogas
believed
banana
asi@@
alistic
accessing
Forum
For@@
ENP
20th
tension
systemic
rever@@
responsibly
reac@@
pity
persuade
lend
lations
hypocrisy
complementary
bottom
apologise
adjustments
Friday
tuberculosis
slow@@
roles
reception
propaganda
persis@@
parliamentarians
intense
injured
ians
gent
deeper
compare
charged
awaiting
ans@@
acquired
Iraqi
Initiative
CO@@
33
weather
tised
tables
statute
ruled
readmission
protects
inevitable
independently
fly
exemptions
ai@@
rese@@
quantities
print
plan@@
orders
navigation
liberty
lar@@
jeopardise
fer@@
fault
dam
condemning
cle
awarded
anyway
Swoboda
Lama
EIT
200@@
urged
storm
pushed
ot
motivated
mobilised
lifting
legislator
isi@@
exert
cop@@
and-@@
Secretary
Lanka
Bar@@
Ban@@
201@@
preparatory
ori@@
object
exc@@
ential
eligibility
electorate
cts
Vietnam
Federal
85
38
silent
rhetoric
murdered
mentioning
lived
interoperability
ing-@@
households
hatred
forecasts
fathers
dual
divorce
dismantling
convincing
caution
a.m.
Dalai
uncertain
thirds
stood
stimulating
specified
questionable
psychological
knowledge-based
kno@@
feasible
continually
concerted
Freedom
Australia
Abkhazia
32
visa-free
sus
sting
relevance
posts
my@@
mentions
limitations
irs
hydrogen
forcing
extraction
doctors
diagnosis
deri@@
confronted
centuries
attach
abide
Lan@@
vic@@
submission
seriousness
separately
rus@@
reforming
pressures
ory
objections
mortality
impe@@
generous
facto
expresses
emergence
deregulation
deliberately
airspace
Resolution
vita@@
perspectives
fore@@
expanding
accessibility
Naz@@
44
”
tele@@
strikes
rity
responds
remuneration
lengthy
holders
geopolitical
ease
diet
definite
criticisms
contradiction
catastrophe
brid@@
bil@@
SOLVIT
43
xes
wishing
vent
ton
produces
pea@@
medicine
linking
has@@
escape
capture
ak
aggressive
adver@@
witness
speaks
smooth
ries
rejecting
low-carbon
iv@@
hin@@
disappear
depth
consists
complied
commun@@
cloned
Govern@@
Eurojust
Defence
49
site
restoring
promising
phenomena
partially
occurring
non-EU
migratory
margins
intercultural
intelligence
hitherto
fish@@
exempt
democracies
coverage
commemor@@
banning
Trans@@
Su@@
Man@@
Gaddafi
Bur@@
Armenia
ula@@
spreading
small-scale
rous
presu@@
motor@@
minim@@
merits
kil@@
harmonising
exceed
equi@@
encom@@
disappointment
chan@@
camp
bol@@
beef
assurances
Eurobonds
EU@@
600
11.@@
tre
techniques
sla@@
six@@
simultaneously
reliability
reconcile
minimise
cus@@
cloning
Workers
Region
Fukushima
EE@@
well-known
suspend
senior
rin@@
reintegration
receives
profile
pan-European
multinationals
interfere
gaining
driver
differenti@@
dete@@
depri@@
custom@@
courageous
condolences
ased
af@@
GSP
Card
As@@
1.5
worthwhile
wed
surprising
solar
sis@@
records
phone
part@@
manufacture
loy@@
gers
form@@
fell
eat
aggression
adults
Dis@@
Dimas
Anti-@@
Almunia
wer
vaccines
under-@@
trouble
trained
prohib@@
hesi@@
gold
frozen
falsified
draws
cornerstone
clothing
accumu@@
Sahara
Prague
Arrest
&apos;t
vation
vague
unite
unclear
twenty
tigh@@
roots
reputation
publi@@
proportionate
pol@@
interpreted
inno@@
habits
formulated
fasc@@
exporting
executions
dare
coup
consolidating
childcare
chances
centr@@
biometric
Warrant
Un@@
Mauritania
Communities
Annex
watch
split
sor@@
sentenced
seemed
pru@@
prohibited
prisons
prac@@
postpone
memory
macro-economic
invitation
investigated
imprisonment
harsh
drastic
contents
claiming
avo@@
audiovisual
ams
acquire
Turkmenistan
EFD
&apos;Ivoire
survey
spouses
righ@@
lers
islands
fragmentation
evaluated
dri@@
cooperative
collecting
bridge
bas@@
assa@@
ain@@
Weber
Tur@@
Maastricht
Lampedusa
G
ASEAN
stream
signatures
rers
recommends
pornography
newly
ner@@
modest
love
inven@@
ination
human@@
damaged
construc@@
communic@@
cial
broadly
bac@@
anne@@
alig@@
Mr.
42
1990s
wal@@
volunteering
typical
tas@@
tain@@
self-determination
saved
requesting
precautionary
li
explicit
expenses
destroying
collabor@@
capi@@
benefiting
bees
attitudes
accusations
Costa
weekend
ung@@
ud@@
tone
tar
shif@@
second-@@
identical
guiding
fle@@
evaluating
enri@@
employ
complying
competitors
bold
allocating
alike
ale
absent
York
Peace
Mor@@
LV
Daul
Blue
Špidla
wanting
transplantation
thir@@
tendency
reviewing
proliferation
prehen@@
precondition
poorly
outs
inhumane
hear@@
formation
exposure
ely
eliminated
cations
arisen
advocating
Af@@
&#91;
vig@@
vary
theme
tax@@
sol@@
prevail
posing
owned
inspe@@
derogations
definitive
crossing
cautious
bears
ash
admi@@
Côte
Cohn-Bendit
worsening
weapon
weaker
synergy
sensi@@
reformed
power@@
je@@
heating
expressly
deemed
blockade
attract
Du@@
46
tourist
supporters
shoulder
rel@@
recital
prevents
performing
opens
neg@@
na
locally
lined
labels
jec@@
exercising
detained
deployed
comple@@
codification
cious
ang@@
ame
alling
Solana
Hague
ze@@
worry
witnessing
transposed
surplus
shed
sensitivity
relative
refusing
rable
prosperous
prec@@
persu@@
moderate
loud
knew
improves
hospital
her@@
er-@@
eligible
benefited
ar-@@
appoint
anticipated
alia
administrations
Kallas
Islands
Hu@@
thin@@
scene
river
pro-European
persist
multinational
mediation
intensify
instances
imprisoned
hygiene
foot@@
emig@@
earn
dio@@
differing
definitions
coalition
classi@@
barely
Oper@@
Lehne
Im@@
Basel
Articles
tremendous
thinks
shops
revolu@@
retail
participated
oring
optimistic
lob@@
incorrect
failures
exemplary
entity
entail
duplication
don@@
depor@@
damages
compensate
bit@@
aforementioned
adhere
SME
Agreements
turing
trus@@
sy
stepping
specialist
remote
relo@@
reci@@
philosophy
organ@@
ool
one-minute
neutral
margin
logistics
handle
divisions
contracting
collect
circulation
bs
bom@@
belongs
assistants
OECD
Multiannual
Euro-@@
700
195@@
wholly
ting@@
than@@
temp@@
supplement
student
street
sion@@
schedule
repressive
punish
lift
lawyers
ets
elite
dominated
dim@@
contribu@@
congestion
conditional
compensa@@
che
burden@@
bra@@
appeared
adjust
England
Ecofin
Congress
AS
ó@@
verification
trains
tening
strongest
spon@@
reactions
plu@@
permanently
new@@
inquiry
imbalance
genetically
finds
distortions
bran@@
bon@@
bir@@
bases
Islam@@
Europe-wide
CFSP
37
toy
tole@@
til@@
threatens
theory
shocking
readiness
rated
mit@@
lacks
ity-@@
forefront
feels
dramatically
deficiencies
deb@@
dable
conjunction
commodities
celebrate
calm
blocks
blo@@
attended
artificial
arrests
Mil@@
Jerusalem
Hungarians
GM
Cuban
ud
tis
tel@@
recruitment
reactors
nutrition
mination
intern@@
endu@@
ell@@
duc@@
dialogues
ceasefire
arly
afterwards
UN@@
SA@@
Liberal
Cotonou
Corbett
Bor@@
xing
wn
sub-@@
secured
pressed
preference
pow@@
miss
mann
implies
hind@@
fulfilment
father
crop
contradictory
continents
consult
commodity
catches
anybody
alliance
Ru@@
39
turns
tolerate
station
replacing
performed
owe
ony
mes@@
measured
lobby
ises
gic
exer@@
dre@@
discriminated
dence
continuity
boundaries
anti-discrimination
allowance
absor@@
Cam@@
B7-0@@
write
vaccination
undermines
testi@@
shop
reduces
privileged
mobilising
intolerance
infring@@
embra@@
dominant
conne@@
capability
bor@@
az@@
ala@@
air@@
RC
Nord
McCreevy
Ko@@
Islam
Annual
weigh@@
unsatisfactory
tori@@
striking
spi@@
speculators
sky
scandalous
prompt
prioritise
premi@@
opposing
loan
lessly
hea@@
even@@
duct
discovered
devices
cap@@
argued
alleviate
admitted
TV
Som@@
Liechtenstein
EP@@
Confederal
&#93;
wri@@
wall
visory
shar@@
retained
mitigate
lates
junta
hospitals
gate
drain
disregard
desertification
Go@@
Chernobyl
Bi@@
tongue
tight
tely
spa@@
socialists
shameful
rein@@
proving
pregnant
pha@@
pay@@
newspapers
incomprehensible
ental
counter@@
charging
cally
approaching
annually
Kurdish
EU-US
Di@@
Bo@@
00
zz@@
z-@@
soli@@
sa
pil@@
partial
lec@@
ingredients
harassment
gains
football
excise
engaging
disappointing
counterproductive
cod
cluster
checking
benchmarks
assu@@
Tri@@
Rom@@
Libyan
Finance
ETS
white
translated
stipulated
spare
shortages
secretariat
pull
polluting
pieces
organisational
journalist
intolerable
individually
harder
expanded
emp@@
decentralised
collectively
amounting
Verhofstadt
99
196@@
trou@@
stipu@@
sters
promptly
predictable
polluter
politician
persecuted
mountain
moun@@
methodology
insu@@
impli@@
hon@@
frequency
eth@@
dia
dal
bans
atory
aro@@
appreciated
analysed
accele@@
Muslims
Kar@@
ICT
IC@@
subsidy
somewhere
sof@@
settle
screening
rent
neglected
injuries
indicating
growers
flagship
dated
box
attempted
arity
adult
Kenya
Harbour
unjustified
undemocratic
traders
thrown
tag@@
rulings
pes
oriented
organic
lusion
hearings
flu@@
file
extremist
disrup@@
discards
char@@
chair@@
cease
bankruptcy
arena
appe@@
Regions
Nigeria
Je@@
Da@@
watching
touched
substitute
striving
shaping
scanners
relocation
oura@@
narrow
itted
incompatible
ferti@@
ecosystem
designated
conscious
completing
bananas
Hel@@
Gi@@
Chancellor
wid@@
time@@
talis@@
sou@@
rests
recti@@
quo
prominent
pave
outline
ology
mber@@
insisted
informing
inci@@
immense
govern
fri@@
fas@@
envisage
cross@@
competing
commissioner
bles
Opel
Management
God
ERDF
violate
verify
up-to-date
univers@@
trials
summits
ster
ship@@
run-up
refrain
plenty
one@@
mus@@
lised
inter
inal
imposition
importers
ill-@@
ile
ideology
hosti@@
domin@@
discriminate
clas@@
choosing
bre@@
audi@@
art
alive
Poverty
Nobel
Agricultural
weakness
warnings
technically
resumption
restored
replacement
reinforcement
passive
moder@@
mid@@
lying
legi@@
kilometres
gene@@
exploiting
euro@@
defen@@
coordinator
balancing
Swiss
So@@
Piebalgs
Be@@
800
websites
warn
unequal
tence
successive
sity
shut
salary
question@@
quantitative
public@@
preserved
oversight
outcomes
ounding
loo@@
load
licences
institu@@
ignoring
holiday
equitable
ef@@
brain
ats
alists
Stabilisation
Refuge@@
Klaus
51
4.@@
warrant
tran@@
repair
ption
prohibition
obli@@
modi@@
manufacturer
lif@@
gated
formula
engines
educated
duration
derogation
conditionality
clarifying
charter
blow
acknowledges
X@@
Her@@
Former
urges
understands
taught
suspicion
stipulates
stereotypes
seconds
ro
profession
prefer@@
patents
newspaper
lawyer
k-@@
irre@@
humili@@
derived
aw@@
alert
accompanying
Tribunal
Poles
League
DC
xenophobia
wines
unsustainable
treating
travellers
translate
tioning
state-@@
pled
market@@
liqu@@
insti@@
images
hydro@@
honestly
fees
evi@@
entirety
eigh@@
di
committing
cash
assert
acute
Ministry
Croatian
Cha@@
Can@@
CD@@
valued
upheld
starts
settled
sal@@
respec@@
religions
protective
nice
mid-@@
maintains
ited
indicator
incorpor@@
hidden
explore
excessively
excess
ery
dic
dece@@
continuously
clean@@
cements
bled
authoritarian
attain
appeals
anticipate
Q@@
Korean
Campania
Berès
telephone
tality
stepped
somebody
sittings
safeguarded
retention
render
oph@@
log@@
ful@@
forgetting
flou@@
encountered
eco-@@
drought
downturn
devise
democrats
degradation
cost-@@
corrupt
classes
chaos
behave
after@@
TA
Progress
Commun@@
47
120
venture
unit
sustain
struc@@
somehow
siz@@
short@@
secre@@
sec@@
rub@@
reconsider
presidencies
poultry
phrase
novel
nes@@
forming
fir@@
exacerbated
eh@@
decisively
de-@@
contaminated
compu@@
checked
ball
aste
ambigu@@
Oettinger
Florenz
Cypri@@
utilisation
tourists
tling
teams
te-@@
staying
specialised
senti@@
rel
ounded
opt
ope
nowhere
noon
marginalised
luck
inspired
importing
gation
games
ga
feeding
encies
drew
ctions
coexistence
chment
catastrophic
carries
assumption
aran@@
Mechanism
Goldstone
Doyle
Buzek
Administration
wrote
taining
sustain@@
precedence
ply
papers
manoeuvre
incapable
gro@@
fostering
enters
distortion
deplore
boats
bid
award
attacked
atic
Tunisian
Sudanese
REACH
GBP
FTA
EN@@
B6-0@@
41
visiting
tells
supportive
stone
sharp
selected
roadmap
ridiculous
restraint
resist
recru@@
professions
patience
passes
occurs
obligatory
norms
ministerial
medium-term
libr@@
hinder
gradu@@
fru@@
frank
foot
extends
era@@
artists
analysing
accommo@@
Saudi
EF@@
Delegation
ć
ter-@@
submitting
slavery
shor@@
school@@
reacted
permission
pain
page
operator
macro-@@
ligence
lifestyle
inability
impressive
impartial
immigrant
im
ight
fragmented
formulate
extremists
eradicate
els
deple@@
clari@@
cited
announ@@
altogether
abolishing
Pen@@
Organization
Mem@@
Kazakhstan
Füle
CS@@
whole@@
transferring
sw@@
scrutin@@
restoration
prejudice
posi@@
patri@@
parameters
justi@@
gues
gesture
expectancy
exchanging
drin@@
discrimin@@
disarmament
diff@@
democra@@
demics
cabotage
barrier
ana@@
all-@@
acqu@@
Zapatero
Strip
Strategic
Nuclear
José
Col@@
weakened
topical
tial
tia
tains
sudden
slaughter
seize
right-wing
overview
origin@@
of@@
judged
influenced
homosexu@@
haz@@
geared
fel@@
fast-@@
eru@@
eradication
distinguish
cyanide
cosme@@
backdrop
aggra@@
Mat@@
HR
veto
vali@@
sively
side@@
resume
prosecution
lap@@
landscape
kill
intensi@@
int
installations
guard
graph@@
gen
explaining
corporations
announce
adjus@@
Sunday
IN@@
Euratom
è@@
xi@@
vated
ut@@
survi@@
surface
suggesting
speedy
skil@@
rup@@
remembered
reimbursement
recourse
perceived
occupational
mistaken
liable
instru@@
inherent
hun@@
honesty
habi@@
fingerprints
denounce
cigare@@
assuming
apolo@@
aging
Wallis
Sar@@
Data
10th
wil@@
tants
supranational
specialists
shot
sam@@
province
pointless
parental
olu@@
observer
objectively
neutrality
narro@@
music
mind@@
indi@@
ilers
govern@@
gar@@
evidently
estimate
engine
dementia
compar@@
aria
Russians
Ger@@
voiced
validity
unrealistic
tally
suspect
smuggling
ser
sch@@
quanti@@
pronoun@@
paradox@@
lab@@
inser@@
disadvantages
dignified
dge
derivatives
computer
borro@@
balances
accelerated
Vi@@
Sal@@
EPA
vity
varied
unregulated
unbundling
stran@@
stem
speeding
shorter
sca@@
respon@@
prospe@@
post-2013
loopholes
insisting
empha@@
distur@@
disappeared
demonstrators
countless
confidentiality
classification
centralised
carri@@
bru@@
bought
begins
aded
Undertaking
Regulations
Pakistani
Mitchell
Jouyet
54
winner
virtue
val@@
unconditional
straightforward
sighted
rebuild
plur@@
perpetrated
opho@@
measuring
manufactured
lands
if@@
hoc
favoured
enthusias@@
echo
dog@@
disturbing
degra@@
deepen
decides
cultivation
cket
ati@@
alist
actor
EDF
And@@
welcoming
weakening
viewpoint
urs
unilaterally
transported
targeting
stock@@
south-@@
ski
shoul@@
rooted
retro@@
reaffirm
quarters
qualitative
pride
perception
mitigation
marriage
leverage
legislate
half-@@
ghts
expects
exceeded
ever-@@
employee
dle
dit
conferences
commission
assigned
acc@@
Sou@@
No@@
Min@@
Egyptian
DP
9.@@
vessel
unlikely
undeclared
tte@@
times@@
tent
subscri@@
specta@@
reminds
reasonably
platforms
outbreak
nomin@@
neo-@@
n-@@
lusions
lee@@
interpret
insp@@
injustice
flying
federal
exercised
executed
discover
dating
countryside
conve@@
confront
campaig@@
biomass
attaches
abused
Shi@@
Pöttering
Pri@@
Canadian
Aviation
98
vement
utterly
user
uncontrolled
signa@@
scre@@
sacrifice
revising
reciprocal
pupils
prudent
pleasant
patterns
paternity
packaging
outrageous
noti@@
munitions
much-@@
midst
l-@@
intimidation
interaction
institution@@
honoured
freezing
formu@@
diversi@@
conservative
celebrating
categor@@
applicants
ah@@
Minsk
Madrid
Europe@@
EU-Africa
83
year-old
torial
timing
the-@@
suspected
stressing
servants
ratio
provisional
proportions
printing
murders
militarisation
matic
lic
keeps
istic
invo@@
insofar
ie@@
denying
compatibility
comm@@
cating
beli@@
ali
Taliban
G8
Chil@@
Berlusconi
00@@
transform
simpli@@
powered
ord
nonsense
neglect
multilingualism
mic
lep@@
initi@@
grade
gathered
free-@@
execu@@
evolution
eration
epidemic
enhan@@
disagreement
day-to-day
cy-@@
complain
circle
churches
cards
Wall
University
San
Monitoring
EI@@
CIA
C7-0@@
AS@@
ve-@@
valu@@
updating
triggered
thy
temporarily
symp@@
shocked
pt
preva@@
pretty
pensioners
mercury
lifted
impor@@
hardest
freeze
flo@@
fib@@
eff@@
eb@@
doc@@
channel
bun@@
bic
arm
arching
admittedly
Section
Ra@@
Jo@@
DC@@
Citizens
30@@
tol@@
supplying
roughly
reminder
regain
prize
preferential
persistent
matu@@
mag@@
long-standing
investor
hard@@
far@@
ever-increasing
energy-efficient
edge
disman@@
cold
bulk
brave
ash@@
UKIP
Ps
L
Eurovignette
1995
younger
yield
ual
retaining
reimbur@@
refer@@
quali@@
preconditions
ound
oppression
non@@
keepers
gl@@
eral@@
embar@@
dance
correc@@
comp@@
bills
backwards
atrocities
antici@@
angle
alises
aj@@
Oomen-Ruijten
Mundus
Medvedev
ITER
EPP
Brazilian
win@@
urging
there@@
tated
stabi@@
sign@@
shoo@@
sess
reveal
rand
purchases
precious
pages
optimism
objec@@
non-discriminatory
lus@@
incredible
identi@@
grand@@
goodwill
fl@@
feder@@
farmer
equip
conta@@
consular
combining
bio-@@
ath
alter
advise
adjourned
Ver@@
V
May@@
Ferreira
Executive
Combating
CITES
BR@@
78
52
wrong@@
vol@@
upgrading
unrest
unknown
switch
supplier
subsid@@
stopping
slu@@
seasonal
reite@@
reflecting
promp@@
motto
modernising
materi@@
machinery
influx
iness
guardian
finalised
feet
fatal
famine
exported
eless
ef
diversify
dissemination
dissemin@@
deter@@
deliberations
consulting
cells
capita
beneficiary
asse@@
acy
Pan@@
IT@@
GN@@
Directives
Bre@@
-2013
vulnerability
vising
vice
um@@
tune
style
roaming
rises
recipients
premature
populist
licensing
lateral
journeys
intermedi@@
humans
enforcing
dist@@
disruption
denoun@@
deliberate
dation
databases
convictions
conc@@
cohesive
bargaining
arguing
Leinen
Hor@@
Fer@@
Fa@@
Böge
96
tration
traffickers
thly
therhood
teen@@
settlements
safely
sacrific@@
ras@@
profitability
postponement
outlook
offshore
mel@@
licence
intra-@@
interpreters
incurred
geograph@@
favours
exha@@
enlarged
economics
disgrace
dele@@
counterparts
commissioners
civilised
breaks
Slo@@
Sky
López
Directorate-General
63
5-@@
-to-@@
án
°
xed
workable
tragedies
tories
torate
tled
thi@@
sick
secu@@
sceptical
prohibit
notification
lean
lagging
know-how
inable
harmony
gy@@
evil
discretion
degrees
credit@@
corridors
construct
confused
chil@@
blan@@
audits
adopts
Y
Support
Jordan
Ho@@
Gauzès
Eurogroup
villages
vering
unused
underp@@
supporter
stones
sporting
sil@@
seal
scienti@@
sceptics
rush
premises
ordin@@
mitting
minimal
lesse@@
ine-@@
household
high@@
gathering
first-@@
erated
encounter
dedi@@
crucially
conformity
condi@@
absten@@
absorption
Parties
On
CCS
Bangladesh
vene
transpose
tness
tles
set-@@
resident
relatives
reaches
rarely
prostitution
prevailing
presid@@
pin@@
notwithstanding
mers
main@@
letters
harmonious
exagg@@
distor@@
departure
defines
correlation
childhood
calendar
boun@@
aver@@
Tro@@
Tibetans
Rec@@
Package
Manuel
Great
Dialogue
89
1989
zy
yo@@
wellbeing
tural
tropical
thrust
suit
stimu@@
rin
rest@@
rend@@
questioned
parent
measu@@
ink
impro@@
health@@
feelings
dictator
confined
censorship
casu@@
beautiful
affair
SEPA
Relations
Mu@@
Lulling
winter
weakest
warned
usted
unstable
ums
to-@@
tighten
tices
standardised
secular
reason@@
negoti@@
minis@@
lou@@
legacy
insi@@
incorporating
ide
hypocritical
hugely
hostage
forwarded
factories
eable
distant
compromising
complemen@@
calculation
bombs
bankrupt
alarm
agg@@
admissible
accomplished
Sci@@
Madagascar
ME@@
Facility
EG@@
Cashman
Arabia
zy@@
vis-à-vis
usion
tising
tile
tible
temperature
suc@@
steel
steadily
spheres
shado@@
returns
recur@@
offensive
modulation
mainstreaming
lowering
intent
imperi@@
hus@@
fuel@@
evaluations
dor
disclosure
del@@
deadlock
constructively
condemns
clam@@
certi@@
care@@
beliefs
Putin
Latvian
IP@@
EA@@
Azores
three-@@
tac@@
swee@@
subsidi@@
stitu@@
shareholders
scrupul@@
scourge
sation
rolling
ria
rewar@@
realising
reaffir@@
presen@@
peripheral
penalise
peacekeeping
overseas
occupying
nega@@
mly
mal
macro-financial
literacy
intera@@
incredibly
grou@@
curb
controversy
contain@@
cleaner
cir@@
cattle
carers
buil@@
breakthrough
backbone
arriving
Presidencies
NA@@
Mi@@
web
vas@@
tractors
ticket
stret@@
stig@@
sk
rose
repatri@@
remo@@
reinforces
radically
pione@@
overlooked
oned
om
oceans
observance
nutritional
minded
micro-enterprises
lia
intermediate
facilitated
enlar@@
embargo
dollar
diagno@@
counts
contradictions
confron@@
assassin@@
admission
Review
Intergovernmental
FYROM
Albertini
1980s
virus
traditionally
tendencies
sig@@
selective
repeal
refuses
puty
predecessor
populated
penalised
mankind
manipu@@
limitation
influenza
gh
frustration
fed
exacer@@
escalation
deterior@@
curta@@
cruel
cour@@
confirmation
cite
bloo@@
arti@@
antly
VIS
Trichet
Tajikistan
Senate
Police
Phili@@
Pack
Har@@
Colombia
20-@@
.00
wel@@
unequivocal
transplant
tolerated
supposedly
solvency
smoothly
slo@@
sea@@
roun@@
residing
reserved
relying
pipelines
physi@@
native
isol@@
headed
forums
forecast
extradition
emphatically
ek
domain
dings
countera@@
contempt
commer@@
commendable
classified
ception
cat@@
bond
bee
band
authorisations
aero@@
additives
addiction
adap@@
accepts
US@@
Soci@@
Posting
Jacques
IM@@
Czech@@
Bahrain
és
vals
utilised
unreasonable
tious
thank@@
temptation
tab@@
supplemented
spar@@
scra@@
rethink
respectively
rescu@@
plane
output
opti@@
on-call
obsolete
male
kes
journ@@
invasion
illness
headquarters
dynam@@
dozens
dossiers
doctor
differentiated
destructive
decreasing
cras@@
consu@@
consis@@
calculated
approached
app@@
amaz@@
advisable
Training
Markets
List
Germans
ESDP
David
Budget
Bra@@
58
1994
volcanic
vigorously
turmoil
tless
thematic
terri@@
subordin@@
strategically
stems
sorts
shipbuilding
securities
ry@@
ros
repeating
renew
quicker
provocation
prerogatives
plun@@
part-time
orities
norm@@
listic
le-@@
juncture
jeopardising
ite
intensified
imminent
gras@@
four@@
fol@@
fluctu@@
fits
film
expl@@
expi@@
echo@@
ea@@
defeat
dark
codified
bili@@
attending
artistic
aller@@
accoun@@
Zone
Vo@@
Scottish
PA
OL
FRONTEX
Communism
Cappato
Ca@@
2009@@
varies
uranium
unequivocally
unambiguous
supervisors
shores
roll-call
reiterated
rants
publishing
mutilation
metres
memor@@
measurable
kind@@
justifiable
ino
horse
fulfils
fronti@@
fraudulent
draw@@
comparative
cereals
busines@@
benchmark
asu@@
afforded
UNH@@
Ste@@
Rasmussen
Mari@@
Competitiveness
Alexander
1992
varying
tery
smo@@
separ@@
ror
rious
questioning
portfolio
optional
one-sided
od@@
nationalist
nan@@
moments
logging
killings
ira
investigating
illustrates
hectares
facilitates
excluding
employer
dubious
dictatorships
desperately
designation
dering
cular
colonial
colon@@
chief
ca
bud@@
boards
blackmail
asbestos
arrival
advantageous
accommodation
Val@@
Thailand
Sc@@
Reinfeldt
Ob@@
Mandelson
Mag@@
Integ@@
Customs
yiel@@
vel
unitary
unchanged
toward
tightening
surroun@@
statutory
sk@@
scarcity
ross
ressing
reluctant
privileges
predomin@@
open-@@
maximise
marke@@
manag@@
lit@@
ishes
heat
good@@
fia
fe
eng@@
eded
don
directors
conferred
combated
chaired
burg
bies
atta@@
aston@@
arose
abun@@
Water
Visa
Tob@@
Third
Pol@@
Ha@@
Gucht
Google
Fischer
El
Bas@@
88
68
67
66
2008@@
à
una
th-East
teach
seized
rotating
rigorously
rich@@
reward
redistribution
racial
privilege
originating
misuse
ming@@
juris@@
inconsistent
genetic
fur@@
feasibility
fai@@
dynamism
dreadful
dispu@@
discrepancies
custo@@
cord
consen@@
champi@@
beg@@
assador
allegedly
alignment
adds
Sz@@
Spring
Robert
Rapporteur
Pas@@
Kroes
John
Israelis
Is@@
Hol@@
61
-term
-2010
ão
worries
tougher
thetic
summar@@
sors
smoke
quiet
pesticide
pation
ounds
ops
oning
noting
lively
led@@
labor@@
hero@@
hard-@@
geographic
gence
formulation
foreseeable
exporters
enormously
ei@@
directions
departments
defec@@
dealings
correction
concep@@
compi@@
chi@@
blam@@
berg
auctioning
anu@@
allocations
alar@@
advisory
Transatlantic
There
Quartet
Malaysia
Lamassoure
Greenland
Bro@@
Bay
2.5
vy
utilise
undering
tailored
severity
separat@@
scrap@@
sch
risky
reveals
parti@@
overlook
occasion@@
ny
nomination
miti@@
mised
margin@@
kets
jeopardi@@
imposes
hen
globe
frustra@@
fired
fantastic
eria
enemy
distribute
dispar@@
desperate
deposits
deploy
counter-@@
connect
careers
boycot@@
bour@@
awarding
age@@
Ser@@
Platform
Ga@@
City
Budapest
Brown
110
ă@@
waves
veterinary
valuation
tine
thers
theore@@
swe@@
sul@@
secrecy
scenarios
resolutely
reminding
refuge
reaffirmed
quiries
promo@@
profession@@
preven@@
predict
portal
photo@@
peacefully
nical
life@@
kov@@
illus@@
il-@@
hesitate
herself
gged
generates
gather
explains
exacerbate
eu@@
enjoys
enjo@@
eggs
eas@@
doubled
distinguished
display
dictators
coupled
cooper@@
complies
colegisla@@
coinci@@
ceremony
ben@@
appropri@@
ances
Wil@@
Tam@@
Secretariat
Pre@@
Peter
Interim
Gomes
Est@@
Borders
Armen@@
93
wondering
totalitarianism
stal@@
sies
representa@@
recas@@
pledged
pertinent
overdue
opium
obs@@
may@@
magnitude
literally
ley
jus@@
headings
grasp
forward-looking
exten@@
endi@@
endanger
distributing
distorted
dem@@
commission@@
comfor@@
coer@@
church
cap
authorising
ann@@
allevi@@
acknowledging
Wales
Vienna
Temporary
Regula@@
McGuinness
Jean
FAO
5.@@
usefulness
tured
tat
symb@@
stag@@
spiri@@
specu@@
sor
ski@@
ses@@
sanction
pho@@
orrow
negotiators
need@@
murde@@
man-made
insists
insistence
inefficient
ij@@
holistic
high-speed
ger@@
full-@@
finger
fat
exemp@@
earthquakes
earliest
e-commerce
devised
detainees
criticising
cel@@
ceable
bureaucra@@
blatant
bel
appreci@@
anxi@@
Union-@@
Order
Mic@@
Dalli
Catholic
57
yan
wood
violating
vigorous
sun@@
summarise
stric@@
ried
relaunch
recalled
proto@@
properties
principally
pricing
pledge
pical
personality
overweight
oured
operated
onian
observing
milestone
kne@@
issu@@
irregular
interpretations
indicative
impres@@
fundamen@@
five-year
distan@@
deeds
crow@@
communautaire
comfortable
boat
beekeeping
amp@@
alle@@
Wa@@
Universal
Tehran
Pr@@
Por@@
CO
91
53
wisdom
unfounded
unavoidable
ump@@
turnover
tsunami
transpor@@
tably
tability
swit@@
suppose
sufficiency
slogan
season
reads
rance
ptions
projec@@
outdated
ool@@
non-tariff
modification
misunderstanding
missile
lots
interdependence
historically
harves@@
ero@@
engineering
dire
deteriorating
description
decreased
correspond
coordinators
consume
codes
catch-the-eye
appealing
ally-@@
alli@@
Supreme
Seychelles
Sen@@
Railway
Kyrgyzstan
J
vers@@
unlawful
unfavourable
trap
time-@@
sted
shipyard
seg@@
reig@@
ratifying
prior@@
posted
possession
pet
pain@@
oul@@
ordered
necessi@@
locations
labelled
ives
ini
indifferent
impasse
gol@@
genital
estee@@
ered
entrusted
employ@@
diesel
conven@@
consci@@
capitals
ade
accredi@@
Tu@@
Suu
Scheme
Res@@
Olympics
Kyi
K
Jan@@
Honduras
Holo@@
Dr
Chi@@
virtu@@
verdict
unusual
suited
stored
specify
small@@
selec@@
satis@@
rupt
rehabilitation
regre@@
rebuilding
pure
purchased
predicted
plight
pig@@
ous@@
non
life-@@
licted
kakis
interconnection
insecure
ideals
gements
fold
expectation
eral
discoura@@
disbur@@
designate
convicted
club
broadcasters
bloody
assent
alco@@
VI
NUTS
Institu@@
Garrido
Finnish
FP7
AR@@
za
winners
wild
underestimate
sub-Saharan
stuck
spac@@
signatories
scoreboard
risk@@
reservation
prolon@@
proce@@
pling
petrol
perpe@@
machine
liaison
levy
ko
irri@@
illustra@@
illicit
handi@@
grams
gating
frame
finger@@
fea@@
ened
emotional
emin@@
eg@@
dupli@@
dropped
defence@@
deep-@@
decre@@
corrective
consul@@
comprehensible
chronic
cheap@@
chairs
catalyst
cam@@
calculations
basin
ava@@
auspices
allegations
adminis@@
aden
Watson
Today
Subcommittee
ICT@@
Eff@@
Dra@@
Che@@
CA@@
Assistance
Angelilli
6.@@
yers
volumes
vention
vating
ture@@
tonne
teness
ss
spec@@
simil@@
reti@@
reta@@
ression
repu@@
ration@@
pealed
mouth
mate
lon@@
landing
ject
intensity
intelli@@
instructions
dividing
distinct
din@@
deplo@@
critically
consumed
closest
cky
barbaric
abduc@@
Work
Sil@@
Romanians
Posselt
OR@@
Motors
Monti
Lo@@
Kam@@
Harms
Gra@@
EFSA
Director@@
Capital
CMO
Bologna
77
č@@
waterways
voluntarily
visitors
unification
tan
smallest
rum@@
rism
rements
regis@@
prob@@
peti@@
pelled
pandemic
orien@@
opted
massacre
marriages
justifies
ing-up
heri@@
gging
frigh@@
friendship
format
flav@@
fan@@
ethics
enko
endeavours
disappe@@
dest
deposi@@
denial
couples
conflicting
communism
cke@@
buses
broke
brak@@
bin@@
authorise
aming
ads
achievable
Ol@@
Mission
Ge@@
Exclusion
Dim@@
Chávez
Church
62
undergo
transformed
tied
suring
surance
supple@@
studied
store
splendid
seven@@
segregation
rol@@
ro-@@
ris
ring@@
renation@@
postpon@@
pockets
paths
oud
onwards
nor@@
mig@@
lled
law-@@
ket
interpre@@
gla@@
generational
filled
files
feed@@
extern@@
explanatory
ex-@@
eri
emergencies
embarras@@
distri@@
dictions
delete
cel
automobile
asts
annu@@
accus@@
Volun@@
Uzbekistan
Prevention
Pe@@
CCCTB
12.@@
-oriented
water@@
walls
violates
tist
timeframe
success@@
separated
revol@@
racist
profoundly
plain
objection
nam@@
multipli@@
memorandum
lo
ishment
isations
hot
horri@@
etal
eradicating
entr@@
documentation
distinc@@
diplomats
dict
devastated
conceivable
coms
civil@@
cit
chic@@
baby
awaited
alls
abo@@
Tannock
MFF
Kur@@
Congolese
Catal@@
Bal@@
Aung
Andre@@
87
-sharing
xation
vege@@
toll
themes
suffers
succe@@
slaugh@@
securi@@
remedies
regularity
pre-accession
peace@@
overly
optimal
neighbourly
nano@@
ks@@
interfering
insul@@
industri@@
fun@@
fire@@
fee
expulsion
expressions
entrepreneurial
endeav@@
emis@@
eld
disgraceful
detection
consist
confrontation
climatic
bluetongue
attacking
antibiotics
ancho@@
alty
Uganda
Tom@@
Mul@@
IPCC
Haug
Farage
Chris@@
Bus@@
0
valence
vacuum
upper
tyres
timately
tici@@
talise
syn@@
surveys
steady
stan@@
si
shopping
semin@@
rigour
revo@@
relocations
public-private
ov
nings
mped
mar
lock
lion
intr@@
infections
impover@@
identifies
holdings
expor@@
envis@@
endorses
ei
educ@@
documented
director
determin@@
counter-terrorism
constra@@
confis@@
collapsed
climate-@@
clashes
caring
biofuel
bi
bab@@
author@@
augu@@
asymme@@
anism
advised
Serbs
Bush
Ashraf
Amnesty
59
-friendly
virtual
vaccine
upholding
twenty-@@
turbulence
transparently
sat
replies
progressing
progres@@
prising
prag@@
passion
overla@@
outs@@
motivation
livelihood
leakage
ite@@
foreig@@
ez
esti@@
erosion
emer@@
earned
devising
denominator
deleted
dal@@
cred@@
contin@@
cefully
bonuses
bloc
advancing
Supervis@@
Stalin
Staff
Sarajevo
PS@@
Official
Medicines
MT
Kash@@
IF@@
Haitian
Gebhardt
Fle@@
CR@@
Bon@@
Ankara
7.@@
zen
youn@@
window
viol@@
villa@@
twelve
tus
trea@@
suicide
subsidised
specifications
scepticism
rement
reluctance
recommending
prov@@
prece@@
outlines
optimum
ophobia
off-@@
occurrence
nets
named
mount
misery
livelihoods
lisation
legiti@@
intensively
infected
holidays
grain
forwards
fix
finalise
environmentally-friendly
endless
employing
elect
distort
disappearance
cz@@
cost-effective
channelled
chains
certificates
breakdown
blue-card
associ@@
aspi@@
asp@@
arable
applau@@
alled
Transnistria
Terro@@
Schwab
Move
GNSS
Fu@@
Elec@@
EMU
Diamandouros
Davies
Boel
Albanian
56
ş@@
yard
veries
veness
vain
underestimated
tude
teralism
subjec@@
smokers
shock
servatory
score
sacrifices
regulator
reacting
progressi@@
proceeding
priorit@@
phones
partic@@
oper@@
omin@@
non-proliferation
municipalities
multicul@@
mates
mach@@
jac@@
indul@@
ht@@
euro-@@
disputed
devi@@
destiny
curricul@@
contemporary
cereal
cancellation
assisted
acquisition
Works
Wallström
Heritage
Gar@@
Freedoms
Euromed
Cameroon
Bauer
-European
zed
useless
use@@
unwilling
tite
sures
standpoint
spokes@@
slight
sible
revive
resolute
renovation
reat@@
ranging
rand@@
populism
partici@@
paraly@@
ov@@
ol
modify
manipulation
kis
interrupted
insult
inspiration
initiating
influential
incitement
incidence
ich
hypo@@
humane
hazard
gible
fleeing
fled
fana@@
factory
engine@@
enders
endangered
embark
discourage
diction
decoupling
comparability
case-by-case
cancelled
bels
auditors
arrogan@@
ari
appearance
agri-@@
adequacy
TEN-T
Securities
Lewandowski
ICC
Europeana
El@@
Ecolabel
Boeing
Airbus
Air@@
Aid
ACP-EU
82
wasting
venth
undergoing
tortured
ssment
rometer
reunification
residu@@
renegoti@@
qualification
penet@@
monthly
kidna@@
instrumental
infection
indig@@
incomplete
homo@@
homeland
hiding
ground@@
gender-based
flags
fically
fic@@
ener@@
drilling
cyber@@
ctors
consuming
confuse
colour
coast@@
civic
cho@@
champion
ch-@@
burning
appro@@
appliances
advan@@
accurately
WHO
SEC
Professor
Mc@@
Kremlin
Gazprom
DGs
Confederation
Air
64
2030
2-@@
1998
Ţicău
yards
unlimited
trigger
transforming
tment
sympath@@
supervise
ssly
single-@@
scarce
rivers
pris@@
peac@@
otic
officer
nit@@
missible
level@@
left-wing
kic@@
join@@
inviting
incumbent
illustrate
ides
ick
hunting
fiable
faul@@
fabric
extinc@@
disciplinary
critics
comb@@
business@@
bet@@
ational
ared
adop@@
accor@@
Wel@@
Vice-@@
State@@
Shalit
SA
Revolution
Orbán
Is
ET@@
Cold
Appendix
Accession
AC@@
199@@
1997
ó
withdrawing
wisely
wan@@
vist
vised
vicious
verse
upgrade
undesirable
unaware
thane
tali@@
sts
start-@@
spot
rooms
ron
resor@@
rebel
quoted
psy@@
popul@@
planes
percent
ousness
notic@@
multila@@
medium-
mas
mandates
mainstream
liberalise
itable
institutes
illnesses
hierarchy
hat
grid
ficially
ex
edu@@
dt
dissidents
diox@@
descri@@
declar@@
cyclical
councils
cotton
correspon@@
conceived
challenged
ard@@
applic@@
ani
alla@@
adher@@
Srebrenica
San@@
Political
One
Mun@@
Level
European-@@
Bosni@@
Asse@@
Ara@@
86
71
whoever
visi@@
vigilance
uti@@
ury
tz
trans-@@
thri@@
talities
stories
spor@@
reviews
resta@@
reside
rationale
proportionately
proclaimed
pregnancy
pool
pedestrians
nesses
mira@@
maladministration
leap
itation
hibi@@
gear
forwarding
fier@@
epi@@
enem@@
dicts
default
countering
congratulated
conducive
concentrating
coincidence
celebrated
blasphemy
auditing
attributed
advi@@
advertise@@
accompany
accede
abandonment
Turmes
Saturday
Red
OS@@
ESMA
EC-@@
Cap@@
Bowis
worl@@
wife
verified
underpin@@
ult
tter
trade@@
sounds
sole@@
situated
salu@@
restra@@
regi@@
recipient
rain
prison@@
prescription
pool@@
polls
pharma@@
perfor@@
pa
overnight
origins
onists
oni
municipal
mix@@
matism
maternal
lus
liberalising
liberalised
kin@@
ilt
igno@@
ial
hot@@
heated
hearts
healthier
forma@@
filling
figh@@
failings
factual
exceeding
edi@@
destined
deposit
declining
dam@@
culti@@
corri@@
comprises
com
bon
bomb
black@@
belie@@
aty@@
attribu@@
ae@@
War@@
Tor@@
Tele@@
Simpson
Semester
Saryusz-Wolski
Rap@@
Papua
PP@@
Ou@@
Mig@@
Mann
Lady
Hu
HS
Earth
Democra@@
Catania
81
wilderness
weigh
usta@@
unsafe
unjust
undeniable
tre-@@
templa@@
tels
str@@
stor@@
shir@@
rob@@
residential
requ@@
registers
provider
prosecuted
plo@@
passage
objects
net@@
mortgage
lessness
ji@@
introductory
hered
hate
feedback
divid@@
describes
delaying
corrected
copy
convenience
bla@@
beha@@
authentic
ashamed
arbitr@@
appointments
ach@@
accord
With
Ukrainians
ODA
Moroc@@
Liu
Ka@@
Interinstitutional
Harkin
Christian@@
ė
waterway
versions
vered
unt
unexpected
sum@@
sibility
se-@@
scarcely
sal
sad@@
resul@@
rejects
qualities
proximity
proportional
pression
practise
portion
paradigm
oldest
oblige
nal
mits
meaning@@
master
magne@@
kas@@
interconnected
horiz@@
holder
grey
gay
fronts
flawed
explosion
ert
dy@@
dras@@
displayed
deplorable
currencies
crude
creditors
consequ@@
commonly
cil
breeding
break@@
blacklist
bic@@
ballot
awful
atives
anxious
ancient
activated
Super@@
Ris@@
Pers@@
Objective
Myanmar
Moldovan
Karas
Has@@
Guide@@
EGNOS
Drugs
Dan@@
Ang@@
8.@@
1993
ymous
wear
wealthy
vo
undertook
uncertainties
umbrella
tte
transplants
torily
tige
third-@@
suspects
slightest
self-evident
rosé
rigid
riding
profiling
pare@@
p-@@
ordinarily
offenders
obe@@
needless
modern@@
mergers
mble
market-based
logistical
inva@@
ingu@@
hopeful
heartfelt
haul
flow@@
fledged
exhaustive
exercises
endorsement
dollars
distributors
develops
deepest
deduc@@
dead@@
dar@@
convenient
conceal
cols
college
clin@@
chiefly
characteristic
chamber
centred
bordering
approxim@@
ambiguous
abandoning
Presiden@@
Pittsburgh
Ortega
Nig@@
Mer@@
MS
Jia
Jewish
Division
Chech@@
Chapter
116
well-balanced
vings
tracted
though@@
tail@@
sticking
six-month
scand@@
remembering
reconciling
passion@@
pair
outra@@
nom@@
mitted
mir@@
kan
iron
investi@@
installation
inhuman
inclined
home@@
hers
hau@@
grow@@
greener
glass
foun@@
first-reading
expedi@@
dea@@
cyber
contractors
confidenti@@
comprehensively
competi@@
club@@
case-@@
bal@@
bal
arran@@
answering
ania
W
Trading
Oce@@
Juncker
Dam@@
Chile
Char@@
Bowles
á
watch@@
vili
venant
usage
trees
travelled
tram@@
tender
teacher
row
ringe
reversible
rendered
radicalisation
protec@@
practic@@
piling
pati@@
parado@@
ologically
olog@@
odds
non-existent
noble
nanomaterials
mountain@@
luxury
kilometre
irrelevant
inha@@
inali@@
imply
immun@@
horrific
honey
hence@@
happily
glob@@
ggering
gallery
foresee
exceeds
elaborate
dilemma
contentious
confusing
compliment
cils
carcinogenic
calculating
beforehand
backward
ass@@
acknowledgement
Topolánek
Sacconi
Ros@@
Non-@@
LDCs
Győri
Grou@@
Fra@@
Four@@
Drug
Ce@@
Athens
3.5
ttes
tom
thres@@
thodox
repli@@
realism
prin@@
post@@
peop@@
ophi@@
lli@@
laugh@@
hoo@@
groun@@
fram@@
far-@@
elabor@@
deal@@
conten@@
confir@@
catastroph@@
awa@@
allo@@
Saa@@
Kac@@
Jarzembowski
IS@@
Grossetête
Gro@@
Euroba@@
Canary
Busuttil
130
ł@@
tise
six-@@
sh
scep@@
satisfac@@
rele@@
profi@@
opt-@@
occup@@
lov
lish
jud@@
istan@@
hat@@
fortu@@
flexi@@
fic
corpor@@
ately
analy@@
accura@@
Valenci@@
Pay@@
Paul
Head
H1N1
Gollnisch
GCC
Environ@@
Do@@
Castro
73
69
140
versity
stro@@
sex@@
orial
moti@@
lect
kable
ison
ignor@@
floo@@
fam@@
ee@@
decentr@@
ctic
bloc@@
Times
Lynne
Laval
Interi@@
Georgi@@
Bri@@
yl@@
wide@@
volcan@@
vil@@
ue
trip
recy@@
real@@
raph
ples
ogues
massac@@
likes
influen@@
influ@@
idance
gently
em
dus
concentra@@
common@@
ba
ate@@
Vondra
Trautmann
Terri@@
Parish
PC@@
Ludford
Eli@@
900
350
vest
vacc@@
unch
telli@@
perio@@
par
ore
mail
lih@@
ital
iron@@
gates
endor@@
defin@@
cian
celeb@@
bert
bers
arri@@
ante
Vassiliou
Tim@@
TF@@
Stalin@@
Roure
Patri@@
Natura
Eritrea
97
79
ón
ï@@
wat@@
von
treat@@
techni@@
sto@@
ster@@
prise
prerequ@@
overwhel@@
organis@@
luses
like@@
liers
lever
itive
isti@@
ints
instal@@
inju@@
hi
genic
fron@@
enter@@
eal@@
dram@@
commerce
arily
aks
adi@@
Ty@@
Pra@@
MONUC
Kel@@
HA
Gree@@
Fron@@
Cre@@
Consu@@
Andersson
27@@
1996
ñ@@
tlements
sz@@
resis@@
reset@@
refor@@
produc@@
pli@@
pled@@
perce@@
loom@@
lis
levi@@
iry
establish@@
erial
environ@@
elan@@
decision-@@
countr@@
corner@@
ciliation
arding
arbit@@
abor@@
Sol@@
Sha@@
Ly@@
Ky@@
Kozloduy
Jeggle
ITS
IA@@
His@@
Cro@@
72
103
,@@
video
streng@@
sized
semi@@
roll
rer
oul
nergy
mation
intimi@@
ik
discre@@
dies
defe@@
continu@@
bes@@
ang
Ur@@
Uni@@
Transparency
Severin
Reul
Nag@@
Le
Camp
Cal@@
CC@@
C6-0@@
76
volunte@@
strugg@@
seiz@@
preten@@
ord@@
oration
optimis@@
mature
lude
isite
ges@@
exam@@
discipl@@
cs
chner
bes
Blair
Bil@@
Ali
193@@
ński
tern
ssed
sexu@@
seem@@
reme@@
realis@@
prises
person@@
part-@@
oto@@
monu@@
innova@@
iner@@
ights
iding
hak@@
femin@@
enfor@@
enda
depart@@
credi@@
bating
al-Qaeda
acce@@
Tan@@
PS
NACE
Gdań@@
Er@@
EULEX
EASA
wska
toms
tee@@
tating
stuffs
regula@@
pessimis@@
pered
o-@@
nia
mid
m-@@
ight@@
fici@@
escal@@
ela@@
achie@@
Vil@@
Solvency
Poznań
Pl@@
MO@@
Liber@@
Langen
Lambert
Hübner
Han@@
Erika
trial@@
tionality
sian
precau@@
omis@@
nel
nd@@
mad
kos
j
gaard
fortuna@@
environmen@@
dian
crea@@
compro@@
candida@@
awaren@@
ager
The@@
TA@@
Salafranca
Muscardini
Kal@@
IMO
EA
Andor
74
turally
state@@
specific@@
sinc@@
sin
lip@@
ince
i-@@
gus@@
ester
Xiaobo
UCIT@@
Rwanda
RS
Mathieu
ICCAT
Fol@@
Fava
Estrela
EURES
ECOFIN
Direc@@
Del@@
Amster@@
290
wski
valent
tisation
tained
stein
semes@@
ran
persecu@@
onia
ole
nez
mented
ita
gical
gam@@
doom@@
coreboard
commit@@
We@@
Veld
Thomsen
TFTP
Santos
Rübig
Mik@@
Human@@
Goe@@
Ford
Flautre
ENISA
Catherine
Audy
2018
170
zing
tron@@
sili@@
scri@@
ruption
pealing
norm
neglec@@
mn
med@@
ika
ica
fundamentalism
fare
evade
devasta@@
creat@@
codi@@
calcu@@
ano
andu@@
ama@@
Venezuel@@
NG@@
Keyser
GMO
Deprez
Battisti
92
50@@
visions
vigation
trau@@
sel
repres@@
publis@@
les@@
itely
ima
governmental
func@@
ey@@
ever@@
epis@@
enta@@
deser@@
demo@@
berger
bene@@
ara
appar@@
Wei@@
Timor
Sánche@@
Gilad
Dell
Dec@@
C6-04@@
Šefčovič
weak@@
tually
tton
troika
terial
saf@@
recor@@
recei@@
quar@@
placement
neurodegener@@
lights
ja
iz
itised
ired
chron@@
cancel@@
appointing
Schmidt
Indon@@
IG@@
Fernan@@
C6-00@@
Argentina
2014-2020
talo@@
rysta@@
quo@@
prejudi@@
olera
nutri@@
mise@@
marg@@
lifesty@@
hope@@
hec@@
gir@@
foo@@
falsi@@
electron@@
ckets
bee@@
Tou@@
Svensson
Sterckx
Medina
Khadraoui
IASB
Gre@@
Georgieva
CE@@
Ben
Afric@@
restruc@@
reno@@
ras
nationally
maxim@@
less@@
its@@
invi@@
ineffici@@
gran@@
food@@
del
ambi@@
Tun@@
Reg@@
Ram@@
Pil@@
Peter@@
Mid@@
Louis
Larosière
Hahn
Gordon
Fri@@
EURO@@
EUFOR
Delors
COP
AR
94
115
tox@@
tack@@
shore
servation
pen
particula@@
ority
manu@@
imple@@
ich@@
endas
ella
develop@@
destin@@
depend@@
demograph@@
cou@@
atus
assig@@
arians
accomp@@
Sin@@
Revision
OK
Kuneva
Klinz
Jac@@
Holland
EX
EFA
84
2010-@@
vis
vin@@
ung
unex@@
three@@
substan@@
st-@@
rah@@
portfoli@@
pit@@
nific@@
mic@@
kly
jad
itarian
isa@@
infor@@
gar
dé@@
cus
cla@@
ace
Wortmann-Kool
Virrankoski
Sierra
Schmit@@
Minis@@
Kovács
IA
Gener@@
Fam@@
Evans
EAF@@
Des@@
Cercas
Ben@@
Auth@@
Alg@@
ú@@
wa
toral
tand@@
struct
sement
rendi@@
preme
pec@@
oods
oo
maj@@
mai@@
loom
lin
infec@@
harmon@@
guaran@@
gas@@
esia
airo
acces@@
absta@@
Xynthia
Savary
Parliam@@
Pal@@
Mubar@@
Monnet
Mis@@
Lambsdorff
Kaz@@
Ita@@
Frassoni
Fjell@@
Ayala
tlement
stakehol@@
smugg@@
ride
renew@@
regular@@
refu@@
rati@@
rad
ora
monopo@@
monit@@
gli@@
fos@@
dou@@
divor@@
dad
cess@@
centu@@
cative
any@@
alu@@
West@@
Vol@@
Vigo
Russi@@
Rack
Potočnik
Nagoya
Morgan
Marco
Magh@@
Istanbu@@
Frankfur@@
Fo@@
Deuts@@
Belarus@@
BA
750
-General
ça
â@@
uring
sun
ská
scan@@
rian
perpetra@@
opportu@@
lu
ique
ion
informa@@
exces@@
emplo@@
dit@@
conserva@@
ceful
Vik@@
Schaldemose
Laperrouze
Ken@@
IP
IFRS
FI@@
Bud@@
Ay@@
Anna
Adri@@
-P@@
ław
či@@
vein
ues
sever@@
ressive
ni
ky
incorrec@@
embr@@
embo@@
dling
coloni@@
collec@@
broadcas@@
bia
avi@@
aqu@@
allu@@
Under@@
Spe@@
Richard
Represen@@
RA@@
Nicaragua
Mes@@
Liese
La
Karab@@
Gräßle
Cioloş
Barack
Ban
At@@
4-@@
10-@@
xen@@
wee@@
shu@@
s.@@
restric@@
q@@
preci@@
plying
pal
ore@@
olo@@
oce@@
moon
lapsed
ison@@
his@@
exclu@@
eties
eel@@
diabe@@
conces@@
cer
ables
Moh@@
Leone
Javier
Jan
García
GF@@
Don@@
Ahmadine@@
114
çois
voic@@
tu
talist
scen@@
rist
rish
reveal@@
rann@@
polis
og
modu@@
mit
mentation
lusive
idden
fore
ere
ented
ensu@@
delega@@
country@@
abin@@
UNESCO
Te@@
Sur@@
Pap@@
Nieble@@
Maria
IS
Garriga
Cri@@
Capoulas
Blok@@
Antwer@@
Alvaro
123
tras@@
servi@@
radic@@
multilingu@@
lawful
geting
esi@@
dary
Václav
Stra@@
Program@@
Méndez
Maced@@
Fig@@
125
vities
turbul@@
temper@@
tedly
rone@@
reven@@
lur@@
incenti@@
desi@@
consisten@@
citizen@@
chin@@
cher
beau@@
aval@@
arance
amed
Zapata
Ti@@
Sto@@
Prodi
Os@@
Marko@@
Leban@@
Kivu
Gá@@
ED@@
Deser@@
Chatzimar@@
Brit@@
08
Šemeta
versal
und
rously
nim@@
kia
ived
imper@@
gun@@
fulness
famili@@
ep@@
dite
discrepan@@
counterfe@@
contrac@@
ata
assis@@
anon@@
Sem@@
Qimonda
Oslo
Nassauer
Marinescu
Mand@@
Kou@@
Ham@@
Guinea-Bissau
Gbagbo
GPS
Far@@
Econom@@
ECO@@
DNA
Crowley
Bhutto
Atalanta
60@@
ß
zu
volun@@
vision@@
quot@@
princi@@
pharmaceu@@
paten@@
participa@@
open@@
oli
nar@@
militari@@
fran@@
fer
enshr@@
energe@@
dogma
defici@@
broa@@
alter@@
administra@@
Technolo@@
Mla@@
LTTE
IV
George
Baringdor@@
Az@@
280
wic@@
view@@
tunne@@
tril@@
teful
self
reserve@@
rece@@
hile
ficial
eron@@
deta@@
clus@@
cates
buds@@
auto@@
atures
appal@@
absen@@
TR@@
Pat@@
Mus@@
Mera
Mario
Fraga
Díaz
Dé@@
DTP
Batzeli
Ash@@
3-@@
21.@@
ę@@
ău
travel@@
transfer@@
tias
tex@@
ople
logo
lling
lik@@
lev@@
kid@@
ision
inher@@
glo@@
gel
frequ@@
fis@@
designa@@
child@@
b-@@
ator@@
affor@@
X
Száj@@
Surj@@
Nas@@
Mexic@@
Kauppi
Joseph
Hök@@
Hitle@@
Higg@@
Eur@@
Bulg@@
Bah@@
Andrikien@@
Ah@@
02
Τ@@
upgra@@
tten
tted
traffic@@
tra
tage
simp@@
opia
mist
los
lians
kes@@
kay
immen@@
hel
ea
dor@@
dom
critici@@
cris@@
ast@@
aeg@@
Zimbab@@
Tech@@
Stock@@
Nicolas
Gy@@
Gie@@
Chişin@@
Chan@@
Cameron
1049
ň@@
worse@@
volati@@
stly
seu@@
ric
redundan@@
reconci@@
ppe@@
opa@@
impac@@
fab@@
eries
dent
control@@
cease@@
anim@@
Saf@@
Ren@@
Prestige
PI
Mur@@
Lange
Lamfalussy
Iran@@
Hercz@@
Figueiredo
ERT@@
won@@
tina
tara
socio-@@
satelli@@
sac@@
reby
phy@@
neighbour@@
mption
mai
licen@@
interest@@
ineffec@@
happ@@
guide@@
dors
distingu@@
dest@@
curren@@
compan@@
celebra@@
Stub@@
Pla@@
Pali@@
PVV
PEACE
Oc@@
Ney@@
McCar@@
Lichten@@
Lef@@
Jen@@
Ib@@
Gur@@
Feio
ETA
Cesare
C6-02@@
Boo@@
Bolkeste@@
Bis@@
Bec@@
Ama@@
Adam@@
AT@@
2007-@@
2004-@@
160
1325
za@@
vir@@
too@@
tee
technolo@@
stic@@
statis@@
stant
rying
rig@@
reflec@@
orra
oping
ombudsman
ols
isi
gru@@
divi@@
chi
banan@@
anci@@
Wogau
Tunisi@@
Tha@@
Tab@@
Prü@@
Mas@@
Járóka
IR@@
Hi@@
Graefe
Gah@@
DHA
Clin@@
AM@@
180
136
108
ø@@
vil
vi
vez
tra-@@
tement
statu@@
stadt
spli@@
rene@@
regret@@
quiry
pating
occupi@@
ly@@
litera@@
intellec@@
idest
dust
dity
dange@@
character@@
blu@@
amoun@@
accep@@
Polledo
Os
Nistelrooij
Mora@@
Mit@@
Michael
Mac@@
Erdoğ@@
EN
09@@
š
ér@@
án@@
weal@@
threa@@
teh@@
teac@@
sympa@@
simultane@@
shire
see@@
pursu@@
perfec@@
mechan@@
massi@@
mark@@
manoeuv@@
lingu@@
lennium
kest
judici@@
heav@@
gentle@@
eing
ecy@@
destro@@
automa@@
authen@@
ation@@
anding
Vic@@
Tase@@
SES@@
Rühle
Podim@@
Kir@@
ICA@@
Fland@@
Det@@
Cathy
C7-02@@
BON@@
12-@@
veh@@
understan@@
teet@@
tages
suspici@@
ström
spre@@
selle@@
ques
ps@@
program@@
ila
iel@@
ided
forestation
follow@@
extre@@
dis
cational
anal@@
amid
alis@@
Tran@@
Schly@@
Reformis@@
Papastam@@
Ki-@@
Hezbollah
Henn@@
FP@@
FL@@
Commission@@
Caspary
Carlos
Bene@@
Balzani
Angela
Alex@@
AL@@
transi@@
terised
sia
resolu@@
predic@@
predecess@@
pira@@
ome
lise@@
leges
je
ister
info@@
ike
ho
gisla@@
gest
formity
dru@@
diplom@@
conduc@@
cht
cauti@@
aval
atu@@
PM@@
Maj@@
Leh@@
Dur@@
Brian
18-@@
112
Α@@
ä
tide
thre@@
terly
succes@@
rite
preroga@@
pared
mus
mortg@@
lian
inging
in-Office
fined
dren
archite@@
amend@@
accomplis@@
Singa@@
RAP@@
Len@@
Il@@
Eritre@@
Al
186
01
uro
tä@@
trag@@
tera
stop@@
speed@@
smar@@
sing@@
obs
nt
mos@@
macro@@
lef@@
itly
ingredi@@
hail
fan
exhaus@@
dorkov@@
dents
deci@@
cu
cive
charac@@
certific@@
cas
ardo
annan
Wiki@@
Tava@@
Saharan
Sah@@
Mavrom@@
Leon@@
Kimberley
Jørgen@@
Indus@@
Gualti@@
Egypti@@
Dar@@
Constan@@
C6-03@@
Br@@
Benazir
168
138
12.00
zzo
zi@@
where@@
tention
struction
ska
scien@@
oligo@@
metal@@
mest
loo
judg@@
innu@@
hospi@@
gal@@
further@@
finan@@
fall@@
ema@@
decou@@
ctural
Vidal-Quad@@
Swe@@
Romeva
Panayotopoulos-Cassi@@
Orlando
Ni@@
Musharra@@
Lag@@
Kiri@@
Kau@@
Hed@@
Eh@@
Eb@@
CN@@
25@@
1-@@
zen@@
wish@@
undi
ticism
salt
roll-@@
road@@
provisi@@
poli
pment
pet@@
nic
motiva@@
mo
mitte@@
metro@@
lorome@@
indic@@
histor@@
gency
fundamentalis@@
distribu@@
decla@@
antibio@@
alterna@@
Va@@
Trü@@
Tarab@@
Sócra@@
Stavra@@
Sam@@
Rad@@
Pet@@
Mumba@@
Mauritan@@
Lehman
Jean-Claude
Ign@@
Gibral@@
Faj@@
Administra@@
8-@@
2011-@@
19.@@
•
ž@@
ý
ū@@
ő@@
ê@@
q
H
ľ
ţ@@
Č@@
Ν@@
Ö@@
€
č
ç@@
ř@@
Z
=
Ο
Á@@
ś@@
ń@@
í
ş
ė@@
É@@
ă
_
Ε@@
Ó
Ő@@
ô@@
·
Š@@
ī@@
​
ń
Ž@@
@
Å@@
º@@
Q
Ł@@
Đ@@
ã@@
Ι@@
Ş@@
ë@@
ł
Ó@@
ο@@
ź
Ś@@
ą@@
Í@@
о@@
а@@
α@@
Μ@@
Ι
ň
£
т@@
τ@@
ρ@@
ǎ@@
ő
ğ@@
ö
*
$
с@@
н@@
е@@
π@@
Β@@
ż@@
ı@@
ě@@
û@@
æ@@
Ü@@
έ@@
Κ@@
ź@@
î@@
²
\
р@@
и
а
χ@@
κ@@
ι@@
ε@@
β
Α
ǐ@@
ž
ť@@
œ@@
ľ@@
ò
ë
ß@@
¡
ш@@
ч@@
л@@
к@@
в@@
ρ
ν@@
λ@@
ή
ά
Υ@@
Ο@@
ţ
Ţ@@
ņ@@
ķ@@
½
±
я
у@@
й
з@@
е
М@@
ώ
υ@@
σ@@
ς
ο
μ@@
ι
ε
δ@@
ί@@
Ε
ʻ@@
Ř@@
Ľ@@
Ģ@@
ě
ē@@
đ@@
ú
õ@@
ì
è
ã
Ç@@
≤
ь@@
ь
ы
п@@
о
м@@
ж@@
д@@
г@@
в
Т@@
П@@
О@@
Н@@
А@@
ύ@@
ό@@
ό
φ@@
ν
η@@
γ@@
Τ
Ρ@@
Π@@
Β
˚
ș@@
ș
ǎ
Ż@@
ŵ@@
ō@@
ı
ĉ@@
ć@@
Ć@@
ą
ā@@
ù@@
ø
ò@@
ï
ç
å@@
å
â
Ú
Ö
Ð@@
É
¹
µ@@
³
§
&@@