<unk>
<s>
</s>
,
.
ja
on
et
Euroopa
ei
ning
see
mis
-
kui
me
ka
ma
selle
(
)
seda
oma
meie
mida
väga
ole
nende
kohta
juhataja
ELi
vastu
kuid
nagu
sest
või
kes
nii
!
eest
vaid
mille
peame
tuleb
komisjoni
meil
üle
Liidu
need
aasta
selles
:
minu
mitte
ta
siis
komisjon
peab
samuti
?
nad
oleme
kas
jaoks
kõik
aga
oleks
nõukogu
te
poolt
oli
veel
eriti
neid
olema
peaks
juba
kus
olen
oluline
teha
palju
seetõttu
kirjalikult
pärast
Austatud
&quot;
üks
ajal
sellest
ks
välja
seoses
mul
raporti
hea
seotud
liikmesriikide
nüüd
praegu
ainult
Parlamendi
puhul
vaja
saa
rohkem
tahaksin
härra
%
kõige
suhtes
kogu
nimel
volinik
võib
siin
kuidas
aastal
riikide
arutelu
arvates
näiteks
sellele
kuna
seega
võimalik
võtta
olnud
siiski
olla
sellega
iga
täna
vahel
peavad
tagada
sel
vad
Liit
teie
;
president
saab
”
arvan
öelda
ga
osa
le
i
tagasi
tähtis
tuleks
selleks
liikmesriigid
eelkõige
tähelepanu
kaasa
Lissaboni
just
ist
seepärast
lisaks
fraktsiooni
osas
EL
riigi
eesmärk
pole
lepingu
küsimus
millega
tema
des
de
ettepaneku
Euroopas
poliitika
se
valdkonnas
isegi
üles
da
-@@
/
ise
tele
inimõiguste
ti
soovin
enam
Parlament
tegelikult
töö
test
ära
kodanike
mist
ega
ette
kasutada
meile
töö@@
b
usun
mõju
abi
inimeste
esitatud
meetmeid
raport
peaksime
tasandil
v
id
tähendab
va
raportis
a@@
koos
parlamendi
jooksul
mine
strateegia
anda
Lugupeetud
kõiki
mise
koostöö
direktiivi
tes
tõttu
läbi
tänada
saavutada
midagi
milles
s
enne
loodan
sooviksin
t
teid
tega
resolutsiooni
sed
mõned
arvesse
tehtud
juhul
takse
kaudu
majandus@@
k@@
antud
täielikult
tegemist
a
edasi
koostööd
selge
is
Härra
dele
samal
hääletasin
dega
vate
ent
sid
üksnes
kuigi
tud
uue
neile
meel
dest
l
suur
lõpuks
ne
kindlasti
eelarve
ta@@
proua
inimesed
tegema
kaks
as
tööd
miks
tohi
DE
luua
samas
pean
teiste
kolleegid
ühenduse
ast
maailma
kokku
loomulikult
sele
kord
saada
olukord
ilma
süsteemi
e@@
saame
riigid
õigus
d
aastat
täiesti
härrad
majanduse
kõigi
meid
finants@@
se@@
in@@
is@@
seks
i@@
Liidus
miseks
teile
t@@
poole
alati
teinud
selgelt
neil
at
teema
muuta
tahan
riikides
seid
naiste
ühise
puudutab
tel
raha
ust
rolli
tus
eri
kiiresti
sama
daamid
võimalus
ka@@
ti@@
ettepanek
toetada
lihtsalt
parlament
S@@
laste
alusel
saanud
paljud
peaksid
al@@
meetmed
olukorda
maailmas
kohaselt
õiguste
mina
sealhulgas
tavad
vat
aega
annab
head
ühe
leping
le@@
mulle
te@@
võtma
meetmete
küsimuses
veelgi
rõhutada
vahendeid
kriisi
us@@
taks
la@@
peale
tänan
probleem
kahjuks
heaks
misega
re@@
esiteks
liikmesriikides
liiga
saavad
uute
teatud
selt
tu@@
Ameerika
ar@@
üle@@
võetud
toetan
u
tõepoolest
võivad
kaitse
vajame
hästi
aidata
tulevikus
FR
raames
arvestades
probleeme
olukorra
eri@@
suunas
misele
korral
ale
piirkonna
enda
er@@
asjaolu
u@@
lik
välis@@
ses
teiseks
demokraatia
alla
eel@@
raportöör
an@@
õigus@@
ees
aeg
olemas
sotsiaal@@
kuni
sellel
küsimuse
näha
misel
k
d@@
e
val@@
selline
g@@
riik
sete
all
Venemaa
silmas
rahvusvahelise
jate
jad
protsessi
o@@
set
põhi@@
uus
misest
de@@
teine
ma@@
eba@@
mis@@
tänu
gi
energia@@
nimetatud
kasu
teeb
li@@
as@@
saaks
vahendite
töötajate
toimub
vähendada
eurot
probleemi
PL
riigis
abil
ine
tahame
2009.
lõpetuseks
vähem
ettevõtete
arengu
aitab
liidu
n@@
teame
valmis
raportööri
olid
PT
turu
ve@@
tohiks
parandada
ütles
alates
kaitsta
ikka
ÜRO
õiguse
muidugi
neist
b@@
v@@
al
toetust
igal
nõus
A@@
tuse
toimunud
am@@
K@@
poliitikat
ku@@
en@@
äärmiselt
võiks
Proua
tegevuse
kõikide
piisavalt
lubage
asi
l@@
võimalust
suure
vajalik
hr
sotsiaalse
suurendada
kohtu@@
ri@@
Hiina
asu@@
da@@
m
del
tõesti
uusi
sõna
inimesi
T@@
millest
el@@
endiselt
leida
miljonit
kodanikele
vähemalt
kahe
ko@@
käsitleva
kaubandus@@
p@@
korda
võimalusi
2020.
kõigile
vale
esitada
palun
välja@@
likud
viia
võimaldab
me@@
kodanikud
ik@@
sa@@
küsimust
inim@@
võimaluse
kaas@@
sageli
un@@
tada
esimene
n
s@@
mas
teada
P@@
õige
direktiiv
võimalikult
viis
mil
sise@@
sellepärast
oo@@
ELis
tava
küsimusi
näitab
eesistuja
valitsus
di@@
poliitilise
suurt
E@@
liige
kunagi
us
liku
aastaks
jätkuvalt
iste
im@@
esile
võime
teenuste
ettepanekut
seal
ra@@
paremini
muret
sektori
õigusi
M@@
ehk
Türgi
euro
sellise
lised
taas
olukorras
vahendid
tust
fraktsioon
h@@
hetkel
it
kooskõlas
millele
kõigepealt
raportit
maks
asemel
kahju
teavet
ki
teised
pidada
m@@
2008.
kava
juurde
vastavalt
piirkonnas
20
vastu@@
tesse
määruse
programmi
vahe@@
C@@
arengu@@
end
üha
G@@
võtnud
kindel
käsitleb
tus@@
Komisjoni
järele
süsteem
kasutamise
keskkonna@@
suurem
selliste
majandus-
seni
like
keskmise
lahendada
ksid
alt
õigust
use
vajadust
protokoll
tagama
raske
tav
järgmine
peaaegu
aru
nimelt
uuesti
teks
samm
000
kõnealuse
mitte@@
vaatamata
edu
rakendada
eesmärkide
IT
toodete
mata
es@@
teemal
varem
põllumajandus@@
viisil
dialoogi
USA
tamise
Ülemkogu
läbirääkimiste
ro@@
ad
õigusaktide
viimase
ühtse
si@@
vt
leian
ja@@
ile
ühine
endale
elu@@
jääb
valitsuse
parlamendis
na@@
il@@
di
hoolimata
olete
kelle
uut
o
kesk@@
2
tab
komisjonile
energia
eesmärgid
edendada
kehtestada
hääletus
teise
sime
probleemid
om@@
Aafrika
praeguse
toetab
kontrolli
tegevus@@
juurdepääsu
likke
tuua
su@@
likku
ge
otsuse
suurusega
soovime
F@@
nõuab
D@@
j@@
Parlamendis
saavutamiseks
õ@@
endast
võttes
kahtlemata
va@@
kolm
isi
R@@
B@@
tavate
suurema
projekti
poliitiline
pe@@
paljude
or@@
kogu@@
suunatud
ina
vatele
institutsioonide
eesistujariik
määral
vaba
eelarve@@
tee
rääkida
tegevust
nõustun
elu
majanduskasvu
oleksid
olulised
küsimused
hulgas
teil
suuremat
pidades
liikmesriike
juhtida
tugevdada
lennu@@
L@@
Kreeka
tea@@
2010.
ühis@@
riikidega
otsus
kriis
y@@
vaks
pool@@
tingimused
hiljuti
kõrge
it@@
piirkondade
hõlmab
st
pa@@
lahendus
tarbijate
keda
liikmesriigi
in
roll
pan@@
uued
ise@@
sektoris
RO
veendunud
tamine
lo@@
aja
Komisjon
kasutusele
ettepanekuid
avaldada
kinni
ettepanekud
käigus
tegevus
riike
erida
tatud
teeme
mises
tegevuskava
keegi
liikmesriikidele
inimestele
&apos;i
1
millel
põhjusel
jõupingutusi
olulise
mingit
valdkondades
riiki
nud
c@@
toime
vi@@
parem
eeskirjade
üh@@
kaitse@@
gu@@
ini
and@@
eesmärke
eesmärgiks
on@@
ellu
kontekstis
tu
Ungari
järgmise
pigem
hoida
alles
võib-olla
r@@
vajalikud
liselt
mere@@
kolme
vas
kindlaks
maksu@@
toob
siinkohal
kodukorra
töökohtade
vältida
desse
Prantsusmaa
küsimusele
mu
an
kohustus
riikidele
huvides
tanud
pakkuda
sin
kodu@@
vajab
tusega
I@@
toetuse
muu
ate
f@@
mi@@
meelde
vaadata
tama
läbirääkimisi
kiir@@
silmitsi
lisada
edusamme
tehakse
olulist
peamiselt
kaubanduse
likult
puudub
kor@@
mind
keel@@
täiskogu
üsna
sätestatud
loo@@
tamist
z@@
2007.
haldus@@
ülesanne
ha@@
mõne
eelmisel
mõista
tulemusi
võtab
tõsiselt
kokkuleppe
suuda
tule@@
täita
saavutatud
jaid
Ma
keskkonna
jätkata
rakendamise
praegune
os@@
ne@@
lisa@@
aastatel
homme
asse
võetakse
kasu@@
es
komisjonil
muud
kar@@
to@@
põllumajanduspoliitika
aplaus
mitmeid
üldiselt
lis@@
V@@
seisukohta
ju@@
võidelda
küljest
teabe
kohe
ole@@
mitu
gi@@
Hr
van@@
tarvis
liikmed
probleemide
H@@
pea
arv
N@@
aastast
10
kasvu
si
artikli
poliitilist
du@@
Hispaania
teel
kasutatakse
ge@@
andma
kultuuri@@
aluseks
erimise
ke
võim@@
era@@
lugupeetud
erimine
andmete
isse
g
he@@
O@@
vaesuse
uu@@
sellist
tööhõive
küsimuste
teate
komisjonis
il
sisaldab
kal@@
3
saaksid
töötada
soovi
ase
vahend
tide
toetama
ohtu
dus
riigi@@
teevad
tervitan
eeskirjad
avaliku
arvu
konkurentsi
aks
vast
küsimustes
kutsun
EÜ
saama
kolmandate
arengut
vasta@@
viimastel
võttis
val
Poola
Itaalia
tähtsust
tusele
tundub
tatakse
kohustusi
Liitu
vajavad
lepingute
at@@
taha
kaitset
Tšehhi
poliitiliste
kulu@@
uste
ide
tegi
pidevalt
kust
küll
räägime
õigused
hal@@
eesmärgi
võin
turu@@
määrus
austatud
säilitada
ehkki
Euroopat
ettevõtted
ainus
var@@
tal
tuleviku
Iirimaa
line
stabiilsuse
teisi
kuulu@@
väljendada
majandusliku
sust
kindlalt
jõuda
aja@@
ütlema
üldse
Schengeni
usi
suse
seisukohast
pik@@
ol@@
est
ühiskonna
rahva
li
ku
tahes
jätta
miljoni
lõppenud
kasutama
suuri
sega
likuks
päeva
lubada
NL
las@@
jäänud
lt
isele
Ukraina
tööstuse
27
Rumeenia
tused
teist
noorte
toidu@@
põhjus
Saksamaa
fondi
mõttes
vallas
ki@@
30
asutuste
kasutamine
järelevalve
tehnoloogia
tööstus@@
J@@
tõsi
tavat
riiklike
rahu
maa@@
viimane
siseturu
valt
umbes
rah@@
ES
käsitleda
suurepärase
eritud
täpselt
pea@@
liikmesriikidel
tagab
ig@@
isest
anud
ümber
rahvusvaheliste
avatud
usta@@
kellel
lased
jatele
peamine
hääletuse
mõju@@
kokkuleppele
id@@
panna
tõ@@
piirkondades
mi
koostatud
kolleeg
hukka
naised
põhiõiguste
ime
eeskirju
mast
kuu
erimist
andnud
kasulik
sellised
rahul
teadus@@
teda
pärit
seas
lepinguga
käesoleva
otsuseid
asja
Vahemere
suur@@
nädalal
ühel
miljardit
parlamendiliikmed
andmise
vahelise
kokkulepe
riikidest
eelmise
kontrolli@@
konkurentsivõime
ohutuse
nn
lu@@
olevat
nendega
esimese
transpordi@@
kõnealune
väär@@
võimalused
sus
tuks
tean
vabaduse
lepingut
artikkel
põllumajanduse
kasutamist
rahu@@
näidanud
au@@
töökohti
vähe
loomise
öelnud
r
võrreldes
pidanud
tulla
inimest
ala
protsess
pakub
kulude
puutub
par@@
koostöö@@
selliseid
sai
pal@@
mõjutab
seisukoht
hulka
muudatusettepaneku
ad@@
kliimamuutuste
ab@@
puudu@@
järg@@
huvi
äri@@
panuse
4
valdkonna
toetame
edaspidi
turul
tähtsusega
põhimõtet
tõhusalt
seejärel
tavaid
auto@@
arvatud
alus@@
muude
kõrvale
oma@@
suhete
nr
aj@@
õigusakti
ettevõt@@
ase@@
oluliselt
võrra
tead@@
kehtib
kooli@@
lõpetada
mõeldud
abi@@
Iisraeli
meeles
usu@@
tuuma@@
saa@@
muutunud
suun@@
oht
lähenemisviisi
sesse
list
üld@@
toiduainete
ed@@
taas@@
kinnitada
deks
juurdepääs
loodame
ga@@
punkti
lise
tegutseda
kehtestatud
põhjal
euroala
nendele
Barroso
pidama
päev
eesmärgiga
tööta@@
liikmesriigis
kuul@@
em@@
50
rahvusvaheline
turg
aset
aru@@
sellesse
kolmandaks
pu@@
ala@@
teadusuuringute
tsiooni
sta@@
paketi
jõudnud
alguses
ühtekuuluvuspoliitika
kasva@@
piiri@@
teemat
otsuste
esindaja
loomine
kliimamuutuse
teksti
institutsioonid
võeti
vägivalla
alustada
Ühendriikide
tee@@
käsitletakse
ke@@
täi@@
nendes
ülimalt
tsi@@
tootmis@@
näeme
ühtlasi
kon@@
avaldused
rakendamine
minna
tegutsema
praegusel
kodanikke
enamik
ühist
gem
erinevad
tuste
tas
liikmete
esitas
järgi
hoopis
ütlen
küsimusega
dab
kavatseb
ran@@
kohal
et@@
selgitada
projektide
hääletada
läbipaistvuse
kõikidele
vajadus
siiani
isega
väljaspool
ud
pool
näib
päevakorrapunkt
2006.
ba@@
tagamiseks
ü@@
suured
arvamuse
sektor
erinevate
tõhus
arendada
juhtimise
aasta@@
tulemused
ulatuses
milline
bi@@
tar@@
resolutsioonis
kur@@
järgmisel
asepresident
taga
seisukoha
sotsiaalset
nõukogule
enne@@
sisse
hinnata
gu
erimiseks
nendest
teisest
Rootsi
5
saaksime
paljudes
aastaid
õigesti
suudame
näide
eesmärki
sel@@
iku
sellegipoolest
ettevõtetele
parema
hiljem
gaasi@@
põhjustel
toetus
ni@@
arvamust
struktuuri@@
sõltub
soovib
ilmselgelt
erilist
kan@@
jõu@@
arutada
vastata
tades
rahastamise
mad
likule
infrastruktuuri
tulemus
soovivad
selgeks
püü@@
iseks
esitanud
tult
mu@@
loomade
läbirääkimised
lah@@
kalandus@@
areng
aste
8
tahavad
mainitud
lahenduse
edu@@
davad
tulemusena
milleks
15
tagajärjed
2011.
raam@@
nõukogus
heakskiidu
hu@@
küsimustele
tusi
unustada
põh@@
koh@@
teisisõnu
aitavad
2@@
istungi
sotsiaalne
resolutsioon
kulusid
läheb
kõigis
amine
6
ä@@
aid
teistes
muutub
kõike
tamiseks
tund@@
ter@@
raamistiku
dile
jää@@
tõenäoliselt
tihti
tame
talle
sena
meele@@
tõeliselt
vastuvõetamatu
poliitikas
nähtud
keeruline
w@@
jääda
luse
õigusaktid
osa@@
menetluse
piiratud
jah
heaolu
tasakaalu
ima
valmis@@
arenenud
sisu
tootmise
ak@@
väikeste
olulisi
ata
eraldi
suurte
mistõttu
ani
tööle
piir@@
inimõigusi
otse@@
vähendamise
esita@@
endi
dus@@
taksid
suutnud
lastele
euro@@
otsusta@@
protokolli
nõu@@
likust
eeskätt
...
kä@@
kuulub
kulud
kujutab
kirjalikud
öeldud
vii@@
vastutuse
korral@@
välj@@
mere
näitavad
tarbijatele
hädavajalik
konventsiooni
annavad
isel
võitluses
programmide
lepingus
õigusakte
ütlesin
ameti@@
vä@@
kavandatud
õnnitleda
andmeid
muudab
käsitlevad
toeta@@
Valgevene
turule
strateegiat
rahvus@@
oluliseks
küsida
solidaarsust
programm
ali@@
lahendusi
vajaduse
sääst@@
kõikides
hariduse
ettevõtjate
arves@@
rakendamist
el
Vabariigi
7
loomist
kaupade
alga@@
telt
asta@@
Hääletasin
põhineb
juh@@
Liiduga
loodus@@
ed
poliitilised
vastutus
tusest
majanduskriisi
lai@@
HU
puudutavad
ohutus@@
näh@@
mitme@@
lus
võimu
maha
40
öeldes
projekt
loodetavasti
liikuda
konkreetseid
antakse
ksime
kao@@
ised
suhteid
pöörata
12
uuri@@
sen@@
otsust
julgeoleku
ises
pi@@
osu@@
eesistujariigi
amise
tuseks
ni
näinud
aal@@
ära@@
punkt
asju
lihtne
käsitle@@
ettepanekute
samme
tegelema
matu
ava@@
arvu@@
SV
konkurentsi@@
juhtudel
Horvaatia
sammu
iseäranis
huve
valitsused
seis@@
huvide
põhimõtte
jälle
uuendus@@
ühest
tegeleda
saan
2008
tasakaalustatud
sõ@@
vatest
ebaseadusliku
täielik
tunud
survet
rahastamis@@
müü@@
ometi
ema
alus
Iraani
majanduslik
ama
moel
raportiga
korra
kiire
istu@@
amist
mitmed
kell
süsinikdioksiidi
osaleda
julgeoleku@@
ah@@
reformi
põhimõte
vastase
suhted
Bulgaaria
tervishoiu@@
kõigil
kuuluvad
isiklikult
tulevikku
inimese
tõsta
põhimõtete
tuses
tingimusi
teistele
likus
asutused
üldise
kasuta@@
eile
peaminister
näidata
kvaliteedi
lust
be@@
Gruusia
ustamine
majanduslikku
jõud
ennast
kohtumisel
hakkab
vastuolus
tingimuste
suudab
olulisem
na
käsitlevate
sam@@
eesmärgil
ilise
ag@@
2009
tekitab
viis@@
pakku@@
2010
saavutanud
tun@@
otsustada
märkimisväärselt
esimesel
tava@@
sood@@
site
olevate
asen@@
ita
isikute
liit
kriminaal@@
1.
tarbija@@
reisijate
vuse
organisatsioonide
lepingud
kinni@@
õigusriigi
vastupidi
tungivalt
tohutu
lühidalt
asjad
seada
millised
diskrimineerimise
edasi@@
vastus
heitkoguste
ul@@
tasid
likul
eral@@
võ@@
viisi
järjest
mõlemad
setele
ühe@@
mingil
haig@@
võrdõiguslikkuse
tati
min@@
ri
meeste
ustada
teadlikud
teki@@
parim
Portugali
lisele
veidi
kriisi@@
esimest
öö@@
tasemel
ühtne
kuulda
kutse@@
Liidul
mõnikord
toim@@
aastate
märkida
võimaluste
ressursside
koostada
ane
ongi
tur@@
kohaldada
kallid
koon@@
har@@
hoolikalt
põhimõtteid
kas@@
dada
tege@@
võtame
ülejäänud
põhjalikult
maid
kompromissi
praeguses
majandus
keeru@@
probleemidega
niisiis
investeeringuid
y
oni
kriisist
demokraatliku
viimasel
teed
hakkama
võimal@@
säili@@
kontrollida
valitud
soolise
lapsed
ettepanekuga
25
viisa@@
mõtte@@
lubatud
vastutust
tis
mehhanismi
liste
ana
presidendi
maksma
kes@@
aitama
vee@@
kaotada
hindade
tähtsam
ru@@
protsessis
läbirääkimistel
ju
esi@@
tõeline
probleemidele
euroop@@
tsioon
tervise
st@@
solidaarsuse
määr@@
üheks
raamistik
otsused
dades
dis@@
ame
kanna@@
end@@
saadud
kultuuri
U@@
too@@
päeval
kaua
ühte
är@@
seisukohalt
järel@@
võrd@@
tamisel
maa
kohalike
Ühendkuningriigi
lõpe@@
kohustuste
kasutades
vabadus
muudatusettepanekud
kuud
humanitaar@@
erib
ameti
W@@
3@@
tahab
Serbia
põhimõtteliselt
paremat
kiita
arutelus
terve
süsteemide
liikmesriiki
ap@@
tea
sem
mõte
arutame
tegutse@@
valimiste
turgude
jä@@
ik
esinda@@
energiatõhususe
4@@
tsioon@@
poliitilisi
lahendamiseks
vaheline
andis
taga@@
olles
miljardi
tule
poliitika@@
lus@@
idee
Globaliseerumisega
võitlus
rahandus@@
Rahvapartei
parlamendile
lisest
kuu@@
jääma
täieliku
mõnes
jaks
juures
Kohanemise
jäävad
teave
kasutavad
LT
nõuda
mõni
leidnud
tagajärjel
datud
õhu@@
rõhu@@
häda@@
tõsine
pere@@
ir@@
valimis@@
kohal@@
algatuse
kam@@
tõhusa
heameelt
Kosovo
ootame
aruande
vi
täitmisele
piisa
kül@@
tekst
mainida
kõnealuses
kohustuse
9
usume
tse@@
miste
likele
ks@@
vastuse
maksu
tah@@
sõltu@@
positiivne
lahendust
ettepanekus
eelarvet
standardite
Nõukogu
ustamise
suurepärane
uurida
la
põhjuseks
põhj@@
poliitikaga
tustest
ide@@
tippkohtumisel
tsiviil@@
paluda
kõrval@@
š@@
majandust
kujun@@
koostöös
tugev
tagajärgi
ümber@@
teabe@@
korraldada
seisneb
peetakse
kaugemale
tan
järel
suurim
kujul
harta
üsteemi
võimaldada
valitseb
rahaliste
ras@@
paljusid
õppe@@
tekkinud
õigusliku
võitlemiseks
ilt
2013.
&apos;
toidu
potentsiaali
koosta@@
Liidule
otseselt
neis
meist
isa@@
esitab
seadus@@
esitama
SK
väh@@
valitsus@@
selgi@@
ilist
tulemuste
toot@@
sotsiaalsete
perspektiivis
aluse
mõningaid
lõ@@
läbipaistvust
ALDE
milliseid
kindlad
juht@@
ati@@
India
üht
tähtsad
teen
sõnum
finantskriisi
demokraatide
CS
vatel
lõike
alal
seisukohal
sobi@@
rahvusvahelisel
kohustused
ita@@
toetavad
neli
meelest
katse@@
vähemuste
teenuseid
rahvusvahelist
mitmekesisuse
ligikaudu
Parlamendile
põhjust
PPE-DE
likkuse
tarbijad
pakett
olin
loodud
kolleegi
idega
üli@@
terrorismi
nõukoguga
innovatsiooni
enam@@
ühtegi
Palestiina
turvalisuse
nõud@@
linna@@
viib
istele
riikliku
tulemus@@
puh@@
tervikuna
teadus-
poolthääle
muudatusettepanek
kohus
sõnumi
lõpus
maaelu
vaatama
parandamiseks
usal@@
ou@@
vastab
süüdis@@
sü@@
ustatakse
reaal@@
jätkama
ilm@@
iline
kindlustada
ettevõtteid
võimaldavad
tena
moodustavad
idele
juhti@@
ettevalmis@@
100
tulemusel
teadlik
man@@
jat
samamoodi
puudumine
pandud
kuhu
õig@@
toonud
pr
vust
liiku@@
kaasatud
dokumendi
võt@@
võitlemise
miinimum@@
likkust
Demokraatide
asjade
väärtuste
vas@@
täielikku
Parlamenti
saavuta@@
konkurentsivõimet
ver@@
selged
töötama
töötajad
ite
hulk
tagamaks
rän@@
loom@@
erinevaid
kõnele@@
järelevalve@@
arvestada
raudtee@@
möödunud
misi
Euroopale
probleemiga
partner@@
Mar@@
vahelist
kaasata
alg@@
kliima@@
looma
andmine
ülemaailmse
usu
riigist
ühiselt
väike@@
olgu
kuju@@
jul@@
lisi
töötajaid
täna@@
tor@@
mate
lähenemisviis
ilmselt
ütleb
ELiga
nõutakse
mingeid
käsitlev
amisega
nõuavad
otsustanud
majandusele
vates
täitma
liikmesriik
toimus
sisse@@
keskkonna-
valimised
naisi
delt
vähendamine
päritolu@@
ohu@@
õigusega
jana
dam@@
Briti
setest
misse
transpordi
tagasi@@
parlamendiliikmete
keskkonda
lõpule
kohaldatakse
kodaniku@@
investeeringute
hin@@
tähenda
tooteid
teosta@@
po@@
nafta@@
vabadust
süü@@
minister
üü@@
tulnud
teni
läbipaist@@
kauplemise
energi@@
6@@
hindamise
konflikti
keskenduda
jale
nimeta@@
äsja
sisserände
lõpp@@
haridus@@
võimaliku
osaliselt
kohtu
iku@@
arengule
õiguslik
II
tasu@@
taotle@@
rakendama
elavad
täh@@
häid
hinnad
hakata
Iiri
ustama
hääletust
algatus
vastasel
seisab
eksi@@
2005.
ruumi
kompromiss
erima
hä@@
ainete
suhetes
60
äärmus@@
tr@@
konverentsi
võitluse
vajalikke
oleva
lange@@
astu@@
sil@@
sellisel
ili@@
ari@@
ükski
väike
ustamiseks
reid
ravimite
oh@@
jätkusuutliku
tänulik
sõna@@
praegust
piiri
mal
kuulnud
kul@@
surve
reageerida
raportile
küsi@@
üldine
vajaliku
tustele
soovi@@
nä@@
lugemisel
hi@@
sa
põhimõtted
peetud
oleksime
integreeritud
hinna
ühiste
mõist@@
määrust
ees@@
taksime
sur@@
kat@@
tagatud
raha@@
parlamenti
paar
nõustuda
tasandi
leidma
jao@@
investeerimis@@
integratsiooni
amet@@
sse
rid
poliitikale
aktiivselt
rahasta@@
ohvrite
Fondi
mised
mures
loomiseks
võtavad
suurendab
riikidel
mõtle@@
vus
tõsta@@
projekte
muudatusettepanekuid
liit@@
kõne
valdkond
usse
Kopenhaageni
vastama
järelevalvet
inimestel
rahalisi
esmalt
side
istungil
edukas
muutu@@
isid
valitse@@
last
kuri@@
S
ven@@
valiku@@
toimimise
mõistlik
küsimustega
kahe@@
tugeva
lõppude
ksin
institutsiooni
tõelise
saata
kavas
daks
tingimustes
sekku@@
piisav
juhtumite
Iirimaal
vaba@@
igas
elektri@@
damine
aastas
NATO
sõlmitud
mõnda
mas@@
laiendada
eraldatud
rahul@@
nädala
valdkonda
tingitud
moonu@@
kaitsmise
koht
jäätmete
op@@
mus@@
kanda
kate
idest
astuda
voliniku
toimu@@
Euroopasse
ütlesite
tegele@@
alase
olukorraga
muid
kõnealust
5@@
0@@
tolli@@
mõtlema
tase
mõjutavad
keele@@
rik@@
konna
eni
andmed
80
500
viimaste
muudatusi
iv@@
algatusi
perioodi
partei
ingu
mõistagi
jatega
avaldab
üldsuse
töötajatele
saat@@
kahetsusväärne
enud
välispoliitika
kapitali
huvitatud
2012.
tulemuseks
olukorrast
vaheliste
taastuvenergia
muu@@
fraktsioonide
ustavad
tsiooniga
tsioonid
ris@@
nõuetekohaselt
mitme
liiki
mõtet
liik@@
konkreetsete
jälgida
ve
keskenduma
humanitaarabi
andmist
kud
ika@@
erimis@@
eesistumise
seatud
erivad
ühes
töötavad
nõr@@
oodata
teiega
sama@@
raamistikku
poliitiliselt
mõistan
liikumise
kuse
all@@
tuletada
lik@@
kolmas
kannatavad
rahastamist
organisatsiooni
finants-
riski@@
institutsioon@@
tel@@
sõltumatu
õnnestunud
võitlust
tehti
ette@@
laeva@@
edendamiseks
valitsuste
vastutavad
nu@@
loob
prakti@@
ch@@
takistada
olemasolevate
kuus
kontroll
alast
aitaks
õhtul
tagamise
riiklikud
esineb
tähtsa
ts@@
karista@@
suure@@
seeläbi
paku@@
maksete
lusele
mängu@@
h
edukalt
ülioluline
vastuvõtmise
korras
kasvuhoonegaaside
kasutatud
ühelt
menetlus
hü@@
7@@
otse
muutma
ida@@
esitatakse
turgu
jõ@@
Lõuna-@@
vääri@@
puu@@
piirkond
partnerluse
saavutamise
direktiiviga
sis@@
konkreetse
enese@@
res@@
määratud
moodustab
konkreetsed
Rahvusvahelise
tuse@@
lihtsustada
kriiti@@
kahte
sotsiaalseid
ressursse
traditsioon@@
sead@@
olev
olemasolu
nemad
volitusi
lasta
ennekõike
kodanikel
ker@@
Moldova
režiimi
asjakohane
18
rõhutatakse
lükata
demokraatiat
rakenda@@
läbipaistvus
ühtekuuluvuse
volitused
pak@@
oli@@
jatel
ustamist
toetamiseks
hääletasime
ur@@
esindajad
2007
tervisele
mõelda
märkimisväärne
jatest
amiseks
pär@@
mõnede
läh@@
lapsi
kutsutakse
kasuks
hoia@@
G20
tunnen
kümne
imine
ohutust
pet@@
määrata
menetlus@@
lin@@
liikmeid
kolleege
dav
väärib
olukorrale
ides
VKEde
á@@
taastu@@
poliiti@@
olenemata
mat
eelarvest
takista@@
riigile
komisjonilt
ää@@
tal@@
samad
kute
kuritegevuse
siht@@
andsin
algusest
tüh@@
teises
selget
ist@@
Ma@@
kuue
keskkonnale
kaalu@@
ia
elanikkonna
peagi
mujal
lises
likum
kõne@@
kat
istest
demokraatlik
vähendamiseks
tub
tsiooni@@
teen@@
standardid
näitama
lähtuvalt
ühiskonnas
võimaldaks
reformide
määr
ing
tulevase
registre@@
kaits@@
8@@
üri@@
seadusand@@
piin@@
otsi@@
asja@@
amis@@
Z@@
läbivaatamise
arutelusid
Sloveenia
võiksid
so@@
märg@@
kohustust
Al@@
deid
vastust
teisel
puuduvad
nõuame
muudatusettepanekute
jne
seaduse
kasvab
kad
tervise@@
ülem@@
õiges
tsioonile
pakti
nime@@
ilisi
aval@@
vabalt
mo@@
juhid
äär@@
toetanud
seisukohti
rakendus@@
osaks
kehtestatakse
isiku@@
töös
partnerlus@@
toodud
tekib
standardeid
romide
pil@@
mure@@
mile
kõigest
detsembris
teatavate
omavahel
muudatusettepanekut
majanduslike
hoo@@
fondide
vus@@
tegevusele
tavaliselt
soo@@
siia
nõuded
kem
tõhususe
rel@@
ot@@
ideed
avalduse
aus@@
tippkohtumine
tunnistama
taseme
lepingu@@
konkreetselt
ista@@
ain@@
õigustatud
tamisega
lõp@@
lennundus@@
kokkulepet
demokraatlike
avalik@@
ELil
üldist
sõja@@
läinud
leiab
iti
hind
FI
tarbija
organisatsioonid
korduvalt
dokument
õu@@
täiskogul
rakendamisel
nõudeid
enda@@
vastastikuse
vara
pankade
paari
makse@@
luuakse
liikmesriikidega
tegu
mõlema
tunnista@@
piirkonnad
vam@@
tsioonide
teh@@
mõistma
tänane
pöörduda
Parlamendil
toetasin
sus@@
väärtusi
ravi
mõis@@
määra
vajalike
Maailma
ühtset
viie
tulu
lapse
kodanikuühiskonna
jätku@@
ülemineku@@
õnne@@
semaks
ootan
noored
nelja
majanduslikult
käsi@@
fond
ustest
piirkonda
likest
kirju@@
kindla
jätkusuut@@
dust
täitmise
põhjustab
niivõrd
dis
suurenenud
paljudel
komisjoniga
ikkagi
vastuvõtmist
sisserändajate
põ@@
lahendused
kut
hääletusel
elt
Brüsselis
tõelist
tulevik
oluliste
aina
relva@@
piirata
Ühendriigid
vastavad
vana
tusel
millal
erimisele
erimisega
dama
Kohtu
vajadustele
rahastamine
lõpp
kaaluda
Ashton
rahva@@
ost@@
kutsuda
aktiiv@@
Belgia
tavatele
sunnitud
sti@@
kolmanda
huvid
algatust
kätte
eelnõu
rit
enamus
damist
A
uurimis@@
tänase
paika
vih@@
tusse
strateegi@@
endise
süga@@
meedia
kule
ae@@
sätteid
komitee
ikke
ustab
suudavad
püüd@@
e-@@
dub
Verts
ALE
tähtsat
prioriteet
julgustada
endas
dialoog
CO2
tunn@@
p
mõõt@@
lepinguid
järgida
199@@
ükskõik
valimisi
igati
hääleta@@
endada
menetlust
lõppu
kokku@@
iliste
ike
duse
tervishoiu
muse
mikro@@
inud
é@@
tõhusust
tippkohtumise
sin@@
kaitsmiseks
imise
unud
13
jaga
valida
tid
tagamine
rakendamiseks
luba
katkestas
aalse
vähem@@
tut
tooted
tap@@
sündmused
rõhutab
organiseeritud
kaitsma
haiguste
väikese
põhiseaduse
mööda
käi@@
kellele
kaitstud
jõudude
bu@@
tunne
tootjate
ten@@
tehnoloogi@@
danud
Venemaaga
tasakaal
tan@@
põllumajandustootjate
damise
soovitusi
põhjustatud
päeva@@
kritise@@
hääletan
ehi@@
Kanada
plane@@
lähe@@
kodumaal
han@@
avaldus
Musta
vaese@@
tavaks
sätted
päritolu
mehhanism
kõr@@
ine@@
aspekte
tamisele
meede
duses
mitmel
José
vaa@@
pikka
pakutud
lepingule
hinna@@
amisel
niinimetatud
mete
aidanud
üsteem
võrdse
reage@@
kõrvaldada
kõneleja
Euroopal
veo@@
tulenevalt
suures
naabruspoliitika
kiiremini
endanud
ustega
tustega
riiklikul
õpe@@
said
jär@@
ajast
vastuvõetud
püüab
mitmes
kehtivad
haridus
astamise
alis@@
tuumaenergia
rahastada
nõuete
lisel
lihts@@
kõikjal
arutelul
viga
vahenditega
tööturule
täp@@
paran@@
naistele
juhtimis@@
gaasi
tuu@@
tunnustada
probleemile
dit
maailm
järgima
Põhja-@@
vee
tuvad
tuge@@
taastada
paneb
kriteeriumid
kirjel@@
endatud
räägin
mood@@
kutsume
kooskõlastatud
dati
raskusi
propage@@
minema
massi@@
kuritegude
hõlmavad
ama@@
rite
mär@@
kusjuures
kaitseks
dusega
austa@@
ärgem
mõjutada
kvaliteeti
hääle@@
ho@@
ustatud
ulatus@@
tahet
rahvas
meiega
kolme@@
esma@@
PSE
Brasiilia
149
ustele
teemaga
kasutab
dil
WTO
Makedoonia
ootavad
muudetud
matult
koostamisel
eru@@
ühised
sala@@
piirkondlike
käes
kasv
tõlg@@
seo@@
positsiooni
meetmetega
hommikul
erimisel
edendamine
Afganistani
11
isu@@
tugevat
volinikku
th@@
summa
rak@@
must
asi@@
subsidiaarsuse
programme
peatada
muudatused
ema@@
direktiivis
aruandes
&apos;@@
ühinemise
võla@@
kollektiiv@@
viimaks
vari@@
näen
malt
juhtum
edasta@@
Pakistani
teiselt
sellistes
mit@@
kaaluma
uutele
tulevaste
teta
suundu@@
kra@@
jätkab
reisi@@
olevad
nendel
meel@@
liseks
lane
kü@@
katastroofi
arvamusel
suuremaid
ali
tehes
ühele
tööstus
strateegias
jätkame
ene@@
2004.
õiglane
vang@@
keh@@
pidi
mainis
korrata
kehtesta@@
istes
ettevõtte
alusta@@
õigusakt
solidaarsus
ohutus
kohaldamise
eritakse
elanike
bioloogilise
tööturu
tõsiasi
käesolev
ettevõtjad
detsembril
bi
Slovakkia
usid
usaldust
tavade
rakendatakse
mar@@
hulga
AKV
vajadusi
tsioonis
seisavad
pöördu@@
pooldan
avalike
asjaolule
ähvar@@
strateegilise
sektorit
pöörama
hävita@@
erim@@
did
vastuvõtmine
vastuvõeta@@
riikidesse
reforme
miseni
konverentsil
justiits-
usaldusväär@@
taksin
säästva
käivita@@
igaüks
perioodil
liiklus@@
erapooletuks
pühendunud
oleksin
lõppe@@
ühineda
tagavad
väärtus
usalduse
sektorile
nähakse
arutelude
tegutsevad
eeskuju
vu@@
statistika
nõuetele
energiaallikate
astele
14
väljendatud
varsti
tegelikkuses
tagajärgede
surma
reformi@@
muutmine
ministrite
lusega
lasi
Li@@
tidele
peamisi
delegatsiooni
õh@@
võitle@@
viima
toiduga
tehnoloogiate
paruness
ametisse
tunnistada
susega
põhjustanud
piiride
kalanduspoliitika
intensiiv@@
ac@@
Lääne-Balkani
Leedu
ühinemis@@
sõnad
suureneb
rääkides
pingu@@
juhtub
hakkavad
tegevuses
rahalist
oon@@
elada
aa@@
vali@@
teistest
sätestatakse
maailma@@
kõnealuste
ic@@
arvamus
aruanne
võtme@@
väikesed
vastane
vah@@
toimib
päris
positiivse
amet
aastatuhande
toetuste
teenused
peamised
liikumist
Euroopast
tagades
paind@@
hari@@
esitati
analüüsi
.@@
varude
valitsust
paremaks
mitmete
kavad
eh@@
ainuüksi
tuli
toimuvad
toiduohutuse
rikkumise
maks@@
kuga
hääletame
elab
vajalikku
poliitikast
paljudele
inimõigused
valdkondi
muudetakse
kide
ing@@
süsteemid
olevaid
julgeolekupoliitika
töötab
ste@@
saamiseks
pikaajalise
meenu@@
kutsub
kinnitab
kehti@@
dame
D
vahenditest
saavu@@
jal
Gaza
võite
veen@@
tõsiseid
toe@@
teavad
soodustada
prioriteedid
lõuna@@
vägivald
püüame
otsustas
kehtestamine
keeles
kaubandus
erinevalt
Manuel
nimetada
majanduskriis
jõupingutused
jal@@
imist
andme@@
z
prioriteediks
näitas
mil@@
leiame
konkreetset
kahju@@
istung
endi@@
arutle@@
varase@@
vaja@@
jagada
eks
Ühenduse
tänapäeval
muutmise
An@@
21.
õigusloome
volituste
tugevalt
taja
sinna
rahvusvahelised
likel
hool@@
elus
võit@@
suuremad
riiklikke
omakorda
määra@@
kaitsmine
kahtluse
tõhusat
pealegi
jäetud
amisele
rahvaste
importi@@
endab
võiksime
vajalikuks
tute
tugev@@
suurendama
no@@
kõrge@@
hoid@@
Itaalias
toetus@@
suurendamise
suurendamine
maksude
liikumine
ikele
tavalt
reguleerimise
hirmu@@
do@@
Jugoslaavia
8.
parima
20@@
ratifitse@@
lii@@
nõukogul
juhtimist
riig@@
ohus
ohtlike
nõudma
muutuvad
matud
koor@@
tõsist
tagatakse
selle@@
poleks
kordan
kallal
valguses
tulema
poolest
arutelud
kristlike
tegelik
Birma
täpsemalt
rikkumiste
luba@@
järgmist
astatud
salli@@
põhjendatud
võimatu
tõhusamalt
teemasid
söö@@
näita@@
ite@@
arenguabi
allkirjasta@@
õigustatult
liikmeks
juunis
ELi-@@
ühtekuuluvus@@
valmistab
vajadusele
tajate
suh@@
piirkondi
lis
eli@@
edendamise
ajaks
valim@@
territooriumil
piirangud
dusest
Liibüa
viinud
tra@@
kirja
vastuvõetav
vab@@
rääkima
mingi
kus@@
tis@@
tervist
olemasolevaid
kordu@@
kohtlemise
heade
demokraat@@
Roheliste
välis-
tasime
konkurents
kiire@@
juhtide
demokraati@@
aastani
tervitada
ra
tsioone
tootmine
tootjad
suu@@
käesoleval
kom@@
huvitav
ülla@@
ühiseid
tulemuse
tera@@
teavita@@
finantskriis
ena
Re@@
vis@@
lähtudes
likkus
ütlevad
tunda
pakkuma
laste@@
dite
patsientide
pakuvad
regionaal@@
pikk
16
tööturul
sotsiaalsed
millist
liig@@
püüda
kiiret
annaks
tri@@
suhteliselt
likes
kriisiga
haava@@
ettevõtjatele
das
vasta
päe@@
märk
kestnud
järje@@
eurooplaste
tões@@
med
lõpetama
kättesaadavaks
jõupingutuste
õigla@@
tähtsaks
tavale
jätkub
esindajate
ehitus@@
70
täiendavaid
püh@@
nimekirja
lise@@
asjaomaste
õnnitlen
võrdsed
vältel
uues
tõsiasja
süsteem@@
suuresti
GUE
tulevad
rühmade
konkreetne
kirjas
kaasne@@
anna
tüüpi
ehitada
bürokraatia
tsi
programmis
oman@@
mus
ind@@
hääletamine
eemal@@
piiriülese
liikuma
looma@@
keskendu@@
arendamise
vaes@@
tumise
toor@@
tegemiseks
tarbijaid
rahvusvahelisi
muutusi
kindlusta@@
kauba@@
kasvanud
jäätme@@
eurooplased
damiseks
võimalikuks
töötuse
sõnu
surmanuhtluse
side@@
nõustu
autor
analüüsi@@
süv@@
stabiilsust
noortele
maksta
kohtumine
joon@@
endavad
õiguslikku
tasakaalusta@@
10@@
võtmise
toimuma
terrori@@
sea@@
investeeringud
agentuuri
tekitada
tarne@@
Prantsuse
õigusloomega
tähtsus
sema
kaubandust
eraldada
du
Hiinas
väärtused
tä@@
siiralt
osana
nüüdseks
leid@@
kohale
kiidan
anname
ajakava
ülesandeid
rääkis
panus
lahu@@
lahku@@
juhtumi
erinud
erinev
energiat
alist
vasse
tunnusta@@
tegu@@
oht@@
menetluste
kaotanud
jätkusuutlik
õnnestus
vabakaubandus@@
tegemise
statisti@@
siin@@
prioriteete
mure
gid
NGL
200
teostada
omaenda
ohvrid
im
öeldakse
tol@@
sätete
saabu@@
pelgalt
pangad
vastaste
tegid
strateegiline
rääkinud
näeb
määratleda
kul
kli@@
jät@@
iseni
investeerida
erinevused
määratletud
läbi@@
finantsturgude
endamine
atud
vastutab
vastast
valdkonnad
pühendu@@
erasektori
analüü@@
I
vastuseks
puutu@@
esin@@
tegelda
rünna@@
lepingust
keskmes
hea@@
vähendamist
tuleneb
sõnadega
rikku@@
prioriteet@@
kind@@
endid
ele
Saksamaal
17
1,@@
tasin
sündmuste
sellises
piire
pangandus@@
mulje
lau@@
kaugele
eelis@@
dokumendid
ves@@
vabasta@@
ustades
taotluse
partneritega
krist@@
väärtus@@
varjupaiga@@
vaatle@@
kõrval
järgmised
erinevusi
teabele
raamistikus
liku@@
kümme
kuidagi
kaasnevad
vor@@
sätesta@@
sih@@
püüdma
põl@@
objektiiv@@
mõistame
lusest
leppida
Läänemere
viise
tõsise
tõsi@@
reguleerida
mide
majanduslikke
laenu@@
käsutuses
kokkuvõtteks
inn@@
demokraatlikku
ber@@
ELile
liikmesriikidest
kehtestamise
isikud
halb
arutama
Prantsusmaal
vam
tek@@
sõjavä@@
siir@@
rühma
mehhanismid
koha
ituse
istel
19@@
vusega
tööhõive@@
lõppkokkuvõttes
heitkoguseid
eraelu
vähe@@
tavas
päevakorda
parlamendiliikmeid
kau@@
je@@
avalikult
põgen@@
kriisile
istamise
ime@@
Atlandi
programmid
koostamise
kavatseme
kannatanud
igasuguse
globaalse
dava
datakse
tihedat
minevikus
tidega
poliitikud
olime
kõikidel
kontrollikoda
kohan@@
juhtumeid
edendama
avaldatud
väide@@
tõrju@@
toovad
seksuaal@@
kriteeriumide
gus@@
arvame
veenda
vahendi
riigiabi
olulisust
kehtestamist
Bosnia
2006
poolel
organisatsioon
eta@@
au
vaesus
pro@@
partnerlus
parlamendi@@
lase
date
Sotsiaaldemokraatide
7.
ütleksin
ühiskon@@
rahalise
püsi@@
piisava
ohvriks
keskkond
järeldused
eesmärkidega
arva@@
üksi
ö@@
valimistel
turud
tul@@
toetatakse
tegime
tajad
siseasjade
ring@@
ombudsmani
katkes@@
kardan
dusele
avaldan
võimet
probleemiks
palume
lep@@
austada
raamatu@@
lastel
kooskõlasta@@
kokkuvõttes
Kopenhaagenis
Euro@@
raja@@
põllumajandustootjad
põhjused
pikaajaline
märkimisväärset
juhtus
ikku
alustuseks
üleilmse
soov
oda@@
lootust
liikmena
digitaal@@
opositsiooni
iseenesest
ülemaailmne
vaim@@
tsid
potentsiaal@@
piira@@
miga
toimuva
struktuuri
muutused
muudavad
lähenemine
kirj@@
keskkonnakaitse
imiseks
edastada
ani@@
alased
aalne
võimu@@
vär@@
viiakse
tõstatatud
süsteemis
meenutada
lahendamise
kogemusi
säilitamise
reis@@
puuetega
piirkondliku
kolmandatest
kaid
vähendab
toetamine
seab
punkte
poliitikate
piirkondadele
märtsil
koordine@@
kava@@
Aafrikas
viim@@
stabiil@@
abista@@
1@@
tugevdab
teeritud
probleem@@
poolse
osale@@
juhtimine
itöö@@
idi
osalema
kohustatud
kellest
etapis
alade
ai@@
võimalike
ustaks
tugevdamine
territoriaalse
punktid
näi@@
mak@@
majanduslikud
kasutanud
järgne@@
endus@@
ela@@
prioriteetide
pingutusi
osal@@
kliimamuutusega
kirja@@
hooli@@
fa@@
õiglase
visi@@
tuleviku@@
rahvatervise
loodi
kuudel
kliima
võimalikke
um
tuna
seejuures
konverents
kohu@@
kehtestama
kahtlust
istungisaalis
idel
radik@@
põllumajandustootjatele
peate
mer@@
loomisele
kahtlusi
istada
institutsioone
info@@
iks
ametiasutused
ütlesid
Ühendkuningriigis
rahalised
metsade
Arktika
püüavad
nafta
mõiste@@
käib
kohalikud
järk-järgult
gen@@
aspekti
ajalugu
90
makro@@
en
alise@@
võitlemisel
turgudel
taset
suurel
suunata
selg@@
likumaks
lastest
kaotamise
heite
enduse
üksi@@
tuid
ootab
mine@@
koha@@
iseseis@@
endaks
Ko@@
ž@@
õiguslikult
tuuri
taustal
süüdi
riigiga
juu@@
asendada
algatuste
tööhõivet
muudatuste
ksite
hääletama
halv@@
eelnevalt
ebasood@@
dik@@
üksik@@
vahendit
töötanud
taht@@
riski
mes@@
hinda
esindatud
avalikkuse
andes
väljendanud
tähelepanelikult
tuma
tuginedes
sõlmida
puudumise
projektid
näol
näe
mudeli
matele
luste
juhtu@@
dused
asub
Vene
Ü@@
võtaks
vilja@@
viimased
uuele
suru@@
saavutamine
puudega
nõue
kolleegide
energiapoliitika
Le@@
uurima
tekitavad
olu@@
novembril
kahel
kaasneb
Küprose
Jaapani
Gu@@
vastutus@@
täitmiseks
toetamise
tegevusega
tarbijakaitse
suurendamiseks
palju@@
maksab
koolituse
kohtumise
kaugel
je
jagan
isik@@
er
diks
Poolas
Kongo
Doonau
teab
saamise
probleemidest
opera@@
mõnel
kvaliteet
kaitseb
ületada
õppe
võltsitud
väljakutse
sisal@@
sis
inimkaubanduse
ei@@
arva
Parlamendiga
teavitada
partnerid
huvi@@
astada
üleskutse
teemadel
tamisest
sadam@@
nime
korralikult
kogukondade
kiirendada
ettepanekule
arendamine
väärt
sidu@@
ser@@
püütakse
palga@@
liha
lahenduste
kohandada
ele@@
Venemaal
raportist
omand@@
nõudnud
märkus
mehhanisme
male
kõnel@@
kontrollikoja
kasutamiseks
kaotamine
eeti@@
üht@@
aladel
täis@@
tarni@@
stabilise@@
ausalt
ühiskonda
sõnavõt@@
osade
põhjaliku
lähemale
hakkame
avalik
asuvad
artiklis
tarbi@@
tahtsin
rõhutan
puudus
kriteeriume
konkreet@@
eelarves
asutamis@@
ühiskond
väikestele
seta
lihtsamaks
eelne@@
alternatiiv@@
viidud
valesti
pää@@
hom@@
ded
ambitsioonik@@
tulenevad
teo@@
tegevuste
tegeleb
sti
riik@@
parlamendil
märk@@
kujutavad
esindab
ülesehi@@
toeta
suverään@@
suuruse
susest
saasta@@
laadi
kindlat
kellega
hoolt
diplomaati@@
ainu@@
tile
praktikas
loota
kehtivate
dade
Kreekas
tööga
tõhusam
tegeliku
seisame
põllumajandus
põllu@@
neljapäeval
luses
kaheksa
jaanuaril
erimisest
endama
142
võtmist
süsteeme
sõidu@@
meetme
loa
jõudu
eid
eesistu@@
astuma
adi
a-@@
Vabariik
tootmist
parandamine
hindamine
dunud
davate
arvestama
zi
tõhusamaks
tekitanud
teilt
suunised
suuliselt
sajandi
raske@@
muutmist
men@@
koostööle
kond
juhtunud
imisel
heit@@
arendus@@
valik
sekkuda
riigil
ima@@
igi
endamise
dan@@
dakse
aspekt
setel
politsei@@
paketti
maapiirkondade
kliimamuu@@
deta
alust
vaatame
ravi@@
pooled
hi
ametivõimud
Sarkozy
PPE
töökohad
ohustab
majanduses
jätka@@
arendamiseks
õnnetuste
tõrjutuse
tugevdama
sanktsioonide
rangelt
paremad
koosseisu
and
Interneti
täit@@
sõltuvad
pisut
mängib
metsa@@
koostaja
kliim@@
endamist
dialoo@@
alane
tunnustust
partnerite
kaardi
jõu
dist
ajaloo
Tänan
ühtlustatud
ärge
politsei
kuulu
kavand@@
kaj@@
dud
võitlema
vägagi
sün@@
silma
püügi@@
nõustume
noor@@
märkimisväärseid
intressi@@
igasugune
hääletas
hinnangu
enamat
võidakse
pannud
kogumise
kaitsele
tü@@
tegelikku
teadmiste
julgeolekut
emist
anti
allu@@
Ju@@
Austria
tegur
seadus
rahastamiseks
praeguste
mehhanismide
austama
võrdne
tõhusad
muutuste
len@@
kogukon@@
jätab
aus
absoluutselt
täidab
sõidukite
struktuurifondide
stabiilsus
selgitused
raportite
paremaid
parandamise
oktoobril
muutnud
meetmetest
tõi
täitmisel
tunne@@
südamest
strateegiaga
sees
piires
ci@@
Iraagi
võr@@
täie@@
teemad
teem@@
tamata
reguleeri@@
positiivset
naaber@@
erakordselt
avaldama
valdkondade
used
nur@@
kavade
juha@@
diskrimineerimine
arvelt
aren@@
alan@@
õigel
toimida
tali@@
kohaliku
ilmu@@
eksper@@
20.
üksikute
niisugune
majanduspoliitika
lastega
kehtima
198@@
veendu@@
teenustele
praegused
lähevad
kõnealused
isikuandmete
dasid
õigustega
transpordi-
terrorismi@@
teatise
surma@@
osutunud
liikuvuse
kütuse@@
huviga
elavate
efektiiv@@
ühtl@@
võrdselt
täitmist
tavast
tak@@
piirid
mõr@@
koos@@
konfliktide
istamine
18@@
tõh@@
tegutsemist
sõnavõtu
raud@@
põhiseadus@@
mid
lähenemist
ksi@@
amisest
ühtlustada
vastuvõt@@
tonni
teatises
pädevusse
missiooni
järgmiseks
tuntud
reform
puudutava
mille@@
enamuse
avaldanud
asutuse
asjakohased
ametlikult
3.
võta
tahetakse
re
positiivseid
peamiseks
alguse
use@@
ohu
määratle@@
meedi@@
ligi
kõigist
kvalifitseeritud
konsulta@@
iga@@
alaste
Har@@
6.
plaanis
peeta@@
otsustus@@
muutuda
langenud
kulutuste
kuivõrd
jõuliselt
Ladina-Ameerika
tarbe@@
suutlikkust
rajada
nõ@@
matuks
keeldu@@
viivitamata
tähendaks
teadlikkust
räägitakse
raportöörile
kti@@
kodumaa
inimene
idesse
hel@@
autode
atu
P
sektorites
rohelise
oskus@@
lan@@
kim@@
ikust
haldamise
hakatakse
Rumeenias
ülesannete
siseturul
raamatupidamis@@
kalavarude
fondist
alik
Lähis-Ida
õppida
võimalikku
tumist
tuhanded
sarnaselt
rõhutama
puutumatuse
parlamendiliige
mä@@
minim@@
leevendada
kohustuslik
gan@@
fi@@
ühinemine
väik@@
täitnud
teadmisi
susele
seisukohad
peamiste
nõustus
loobu@@
aeg@@
välisteenistuse
vastuseid
töötle@@
turismi
tingimusel
reformid
majanduskasv
läbivaatamine
lub@@
käimas@@
katastroof@@
iksid
austamise
Balkani
teenuse
setes
paindlikkuse
novembris
noori
matuse
kindlust
kasvu@@
eir@@
Tuneesia
tootjatele
tegelevad
sõda
reform@@
pikas
ookeani
nim@@
likumad
ts
suurima
nen@@
mudel
maksumaksjate
ilmne
esid
tamis@@
taasta@@
soodustab
polnud
pika
piiranguid
kohalikul
diga
võrgustiku
vaj@@
tühista@@
tõsised
toom@@
tervi@@
kriisis
eeskujuks
õigusloome@@
voli@@
vamaks
tihedalt
seista
päde@@
naga
lap@@
kliimamuutus
kala@@
eluliselt
eelista@@
arve@@
9@@
võinud
tsioonist
tasuta
romade
raportööre
pannakse
meetmetele
lõpu
keelt
fraktsioonid
avada
telli@@
miski
menetlused
kodanikuvabaduste
ettenähtud
endades
emine
asutamislepingu
ametiaja
ühendus
nõnda
märtsis
mehhanis@@
maapiirkondades
loonud
käibemaksu@@
kaht
kahele
Te@@
Iraanis
vaimus
teisele
teeks
tabanud
seksuaalse
seaduste
paindlikkust
lõikes
kõik@@
kum@@
kohtle@@
gil@@
bio@@
rin@@
piisavad
avam@@
Lääne-@@
õpp@@
väikse@@
tuda
tasu
püüdnud
pädevuse
ohvreid
loomisel
laevade
joo@@
itse@@
hoi@@
ütle@@
ühiskond@@
päevakorras
lõun@@
korraldatud
ilmselge
2011
vähendama
soovitan
poliitilises
piiriüle@@
parand@@
nor@@
lepingutes
julgust
jag@@
tutv@@
sain
rakendatud
ohtlik
muutmiseks
käsitlema
kindluse
isti@@
ennetada
ebaseaduslikult
Haiti
tuge
saavutame
organ@@
kaasa@@
julg@@
ika
hõlb@@
erinevates
eralda@@
C
vajaduste
tidest
paten@@
niisu@@
mail
maad
lused
ismi
haar@@
gust
aar@@
takistab
tagamisel
tag@@
suhtu@@
saavutamisel
parlamendiga
panust
ootama
korruptsiooni
koosseis
koosole@@
kandma
damisega
ainuke
75
ühinenud
tugevdamiseks
sisene@@
põlvkonna
piirkond@@
mõiste
kultuuri-
kand@@
integre@@
BG
-le
ümberkorral@@
ühehäälselt
viivitamatult
partner
murettekitav
lugeda
lam@@
lae@@
kogemused
kiitis
kaalul
isikust
Galileo
23
variraportööre
teretulnud
sõja
ravim@@
koo@@
kahan@@
õnneks
võõr@@
väärivad
välju@@
valitsusele
tööjõu
toodetud
tekstis
plaani
pakutakse
natuke
menetlusi
matus
kujundada
dokumendis
üleilm@@
võtsid
võrkude
vaik@@
vaatenurgast
tõl@@
turva@@
turgudele
to
ski
ron@@
n-ö
ettepanekutega
ergu@@
arvamusi
SL
väärtust
uuringute
nast
läbivaatamist
les
keskuse
arendamist
alli@@
ab
Kesk-@@
2020
vusest
tegevusi
samu
s.t
protsen@@
jõustumist
asjatund@@
tunnistajaks
põhja@@
parandama
loobuda
lisatud
kadu@@
hakanud
elavdamise
õigustest
uni
täiendavat
seisukohale
reeglid
pruugi
piima@@
pensioni@@
läbirääkimis@@
häälteenamusega
huvisid
astamine
arvatavasti
vähemus@@
una
toote
toimima
soovitused
solidaarsus@@
pang@@
näevad
määrusega
lähedal
liikmetele
kõ@@
avaldas
austamine
üheskoos
ühendada
õigluse
Ühendriikides
tööaja
rahvale
põhjuseid
põhiõigusi
puudutavate
praegusest
kogukonna
kah@@
ingu@@
finantsabi
ametite
vägivalda
viitab
uuringu@@
sedalaadi
saadik
piiril
palunud
osalemise
muuda@@
lõim@@
liberalise@@
kohaldamine
kalt
kahjustab
jõud@@
esimees
Portugal
tähelepane@@
sobiv
saavutamisele
rais@@
miljar@@
lõpliku
järeldusi
hõlmama
füüsilisest
endamiseks
deklaratsiooni
tingimustel
ter
sisu@@
realist@@
leiavad
koostama
kahepool@@
energeetika@@
ebavõrd@@
algatus@@
Vabariigis
Internetis
35
üles@@
õigusaktides
tegutseb
tavatest
regule@@
lühikese
liikme
geneetiliselt
abiga
väljapakutud
tle@@
tervis@@
ted
selgeid
rikkumis@@
riikide@@
pur@@
musi
keskendub
katele
ba
ates
are@@
Afganistanis
300
ult
tataks
maksustamise
makse
majand@@
läb@@
diskrimine@@
ametiasutuste
0.
vahelisi
täide@@
toiduainetega
tegevusest
teatavad
meilt
juhib
esse
dokumentide
aastaga
Saksa
täiel
selge@@
millesse
mehed
kindlustus@@
esitle@@
eks@@
dokumen@@
alustama
võtsime
välisasjade
vähenenud
valve@@
turval@@
tuhandeid
relvade
nõu
mäle@@
mitmekesisust
eeldab
edusammude
21
ühinem@@
vo@@
usaldus
tõusu
tre@@
teistel
suhtle@@
semat
rõhutas
räägib
resolutsiooniga
pööra@@
poliitilisest
nägem@@
järjepide@@
ettevõtlus@@
edusammud
asutus
analüüsida
Tiibeti
,@@
í@@
väiksem
valiku
vahelised
tunnevad
toetamist
teemade
suut@@
nevad
gis
delegatsioon
avasta@@
üsteem@@
tervitame
saate
pääste@@
pane@@
lubab
kultuur
konflik@@
esitamise
algatused
Strasbourgis
vel
seisukohaga
reklaam@@
pagulaste
mõõdu@@
märkis
levita@@
leev@@
koondatud
kohapeal
kohane
keskne
täiskogus
suurendamist
parlamentaarse
otsustavalt
maantee@@
likuma
liikmes@@
lihtsam
kvaliteed@@
kinnitas
arengumaade
Stockholmi
ühinemist
õigusaktidega
võetaks
sõnavõtja
seg@@
käsitlevat
kokkulepete
kaldu@@
jast
guse
erine@@
bri@@
võimalikud
tagajärgedega
räägivad
nale
määruste
kin@@
kategoori@@
austust
Na@@
Doha
tulu@@
teadma
sõnade
sisaldavad
riigisise@@
pide@@
parlamentide
kuul
itu
erand@@
arvata
0,@@
ütleme
vigu
territooriu@@
tegeleme
sanktsioone
sage@@
määruses
kil@@
kii@@
finantse@@
201@@
11.
ühiskonnale
vahel@@
tumine
tasemele
tahaksime
raportööriga
piiriüleste
parandab
levinud
kala
edendab
Montenegro
Hollandi
tulemust
sinise
sammud
keelatud
jäi
julgeoleku-
Keskpanga
võrdsete
vama
ustamis@@
tõus@@
toetas
tegutsemis@@
sisuliselt
põhinevad
peam@@
matest
liidus
konven@@
kaub@@
enamiku
väärse
uutes
usele
takistavad
rahvusvahelises
põhivabaduste
punktis
matu@@
liigu@@
kuula@@
kale
jõuab
jatelt
ebaseaduslik
direktiivide
võimelised
vägivald@@
viib@@
seisma
muundatud
kõrvale@@
kahepoolsete
jätkusuutlikkuse
jäetakse
gist
fakt
arengukoostöö
aita
ülesandeks
umi
sõltumatuse
sõltumata
staatuse
majandusega
hindamist
hindamis@@
avalda@@
algust
Taani
16@@
äriühingute
võim
varu@@
tagaks
rahvast
paluksin
otsusega
kait@@
kaal@@
haridusele
eksporti@@
astunud
vägivalla@@
vaadelda
tähista@@
taotlus
muretteki@@
lähtu@@
lihtsustamise
koostanud
hoolitse@@
eti
erakon@@
eesistujariiki
ajakoh@@
ajakirjan@@
13@@
öeldi
usaldusväärsust
tööstust
tööstusele
suureks
nädalat
niigi
nas
naabrus@@
lähenemise
haridust
bürokraatiat
abiks
Kuuba
Ber@@
usku@@
tänapäeva
pre@@
otsustava
mõnevõrra
mitmekes@@
mees@@
lähte@@
lile
ili
tegelemiseks
seadnud
pe
käsitletud
kristlaste
kohaldamist
imad
alise
kõvasti
globaal@@
arutatakse
ade@@
DA
9.
22
üks@@
viita@@
ula@@
soovita@@
ori@@
mõistmise
meelel
maailmale
kaupa
damisel
Vasakpoolsete
Hispaanias
15@@
teisalt
spor@@
raportöörina
märkimisväärse
lahendama
kunst@@
kolleegidega
grup@@
ebaseadus@@
dena
Ida-Euroopa
EIP
vormide
vajadusest
tehniliste
tasakaalu@@
mõjutatud
lusi
istungjärgu
geo@@
Van
SIS
Rahvaste
24
üldsus
talu@@
saime
rün@@
rände
päästa
parlamendiliikme
nõudmisi
mor@@
keskkonnasõbr@@
isiku
hääletus@@
giga
audi@@
ECR
Araabia
Ühendkuningriik
või@@
väärne
vaata@@
ustas
tooks
rõhutanud
ruu@@
per@@
lihtsustamine
juhtuda
jagatud
ettevõtetel
bki
asutustele
algus
ade
vormis
volinikule
vastavate
tehnilise
taastamise
sad
rikkumine
nõustu@@
mõtlen
meetodeid
meet@@
lähenem@@
kõikidest
kel@@
kedagi
kaugeleulatu@@
kaar@@
juht
häbi@@
12@@
õigusnormide
välti@@
tööpuuduse
ressursid
põhjustada
praeguseks
piirangute
pare@@
osad
megi
made
liitu
järgmiste
järelikult
harju@@
eriline
astamist
üleuju@@
ühendatud
uurimise
usega
sündmusi
suruda
põle@@
potentsiaal
missioon@@
keskkonnahoid@@
dide
alu@@
tõsise@@
tlus@@
suitse@@
palve
meetod
matut
kasutame
jälgi@@
finantstehingute
arvam@@
Aasia
ó@@
soovitus
reegli@@
peal@@
lõh@@
lähitulevikus
elanikud
ebaseaduslike
Pool@@
Lu@@
Catherine
2,@@
vältimiseks
tippkohtu@@
tiiv@@
reeglite
pöör@@
lausa
jatena
14@@
ül@@
vil@@
töörühma
tõhustada
paistab
osutada
liikme@@
kulutusi
hül@@
annan
Ühendriikidega
uni@@
tõe@@
täienda@@
toetusi
sundida
ohvritele
kütuse
kirju
kadunud
hääletanud
hak@@
esi
avaldavad
astel
asjaolust
arutanud
anduse
andus@@
Frontexi
ÜPP
usaldusväärsuse
stuse
pöördun
piirkondlikul
os
nais@@
mängida
kvootide
kuuluvate
kannatab
kamise
intelligen@@
be
aruteludes
Läti
Kohus
ühtlustamise
õõnes@@
tugevdamise
tarb@@
seadusi
rikkumisi
osalevad
möö@@
määrade
muutuma
julgeolek
jagu
impor@@
fraktsioonist
Vabaliidu
E
tunde
transport
toitu
semad
pide
mul@@
ministrid
meetme@@
lei@@
kindl@@
kest@@
kandidaat@@
jaanuaris
enet@@
õl@@
vahele
suurepärast
raamatu
por@@
poolne
otsustama
ob@@
nõuan
märkused
muidu
koolitus@@
järeleval@@
Rahvus@@
varud
tegemine
tagasihoid@@
sektorite
seadma
saadab
lõplik
korrek@@
kasutamisega
fraktsioon@@
diskrimineerimist
c
ajal@@
üheksa
säilitama
soovinud
sattunud
panga@@
musega
lugu
lee@@
kontak@@
katastroof
juunil
juhtumit
biokütuste
täidetud
tähtsuse
põhjalik
kujutada
keele
kandida@@
enn@@
Martin
Iisrael
Enne
&amp;
tööhõive-
tunnustamise
soovituse
protesti@@
osalemine
oktoobris
neljandaks
lasub
korra@@
ajaloo@@
Horvaati@@
ähvardab
tõstatada
toimimist
seisundi
reegleid
ranniku@@
positiiv@@
palus
lahendamisel
külasta@@
kasutamata
ida
fakti@@
asjakoha@@
alse
Brüsseli
võtan
tähelepanuta
teatavaid
režiim
põhjustavad
mõjutanud
mõjude
mänguasjade
lev@@
gile
finantsraamistiku
ettevõtjaid
andmekaitse
üleskutset
veebruaril
riiklik
rasedus-
rahvusvahelisele
proportsionaal@@
niisuguse
muut@@
duste
Par@@
Egiptuse
10.
õnnestub
voo@@
vahet
ulatust
sõdu@@
sotsiaalkindlustus@@
reageerima
range
pääseda
osakaal
mainisin
lähenemis@@
linnade
konventsiooniga
institutsionaal@@
andmiseks
öko@@
võtmine
vastava
vahepeal
põhineva
poole@@
lahendamata
isikutele
impordi@@
hõlma@@
hinnaga
endame
asjakohaselt
aegadel
Vi@@
197@@
19
väl@@
viitan
tubaka@@
säilitamine
sal@@
referendumi
pääse@@
personali
omalt
ohutu
jõus@@
jääks
jälgima
eeskirjadega
dusid
asjades
aprillil
ammu
ajaleh@@
Albaania
ühtki
ühenduste
pragmaati@@
pettunud
pealt
parimate
normide
muste
matuid
kõrged
konkure@@
istab
ikud
huvita@@
hul@@
for@@
f
esitan
emise
aliste
Lähis-Idas
võrgu
siseturg
sekkumise
sanktsioonid
regulatiiv@@
protokol@@
peegel@@
muutus
midega
liikmesriikidelt
kättesaadav
kohustus@@
institutsioon
hinnangu@@
hetk
ustamisele
tik
sõn@@
spordi@@
rühm
ras
rahvahääle@@
raamprogrammi
olukor@@
kampaania
hoonete
hiljutine
hakka
energeetika
dajate
töötame
täidavad
tahe
seisu
riske
osalemist
nägime
kõrgelt
ingud
ambitsioon@@
aktiivse
Ka@@
EKP
õigusest
usaldusväärne
töö-
tasub
sügavalt
sõlmimise
nd@@
laasta@@
erakondade
ametn@@
alised
Ne@@
üpris
pädevus
panema
nes
nal
mõne@@
mitmeaastase
juuni
häälel
asti
VKEd
Obama
2003.
õiguslike
universaal@@
tähele
sõnavõtus
sõjalise
seisukohtade
seadusandliku
saavutatakse
saavutama
rakendamisega
periood
matust
kursis
kliimamuutused
damisele
ametliku
aidates
aastateks
ülesande
üleilmastumise
vahista@@
tõu@@
täiendava
soovitud
põhinema
mused
mun@@
kord@@
esitasid
ese
avaldusi
võimeline
viivad
usest
pl@@
pestitsiidide
märkusi
kampaani@@
kaasamine
fil@@
erides
asuda
aspekti@@
asjakohase
vahetult
vahenda@@
ulatusliku
tasakaal@@
selgesti
punktide
mudeli@@
linn@@
kusega
korralduse
hüvita@@
esitame
elame
bürokraat@@
De
viimaseks
vanemate
vabaduste
tõhusaks
tist
spordi
septembril
sega@@
riiklikku
kindlus@@
edas@@
asjakohaseid
UEN
süsteemiga
seitse
pakkumise
kättesaada@@
ktiiv@@
kahjustada
juulis
investeeri@@
inimestest
imisega
fondid
ete
edendamisel
dajad
avalikku
arengumaades
Organisatsiooni
üsteemide
vusele
uuringu
täis
perekon@@
niipea
mõistab
miljoneid
mais
maade
löö@@
luues
laienem@@
konsulte@@
katastroofide
jõudma
investeerima
eneb
ekspordi@@
autor@@
arenguks
Ungaris
2000
2.
täiendavad
turvalisus
ranged
organite
läbipaistev
levi@@
kodaniku
kaeb@@
igale
ideid
endatakse
atele
aita@@
Portugalis
Inimõiguste
tän@@
tähel@@
tragöödia
sõiduki@@
sisaldu@@
põhimõttega
or
küsima
kohast
kiidetud
jas
heitkogustega
euroni
dünaam@@
dokumenti
vabastada
ustes
tõkes@@
tustes
toimi
tervishoius@@
teadlikkuse
madala
likkusele
kauple@@
kaht@@
jas@@
erinevus
Hertsegoviina
Euroopa-@@
ühtlustamine
transpor@@
tavasid
tahtnud
spekula@@
pühendumust
pääst@@
olulisel
maj@@
kla@@
institutsioonidele
hääletused
endam@@
emi@@
T
Nõukogude
Me
2002.
äh@@
vastastikune
terroris@@
tate
naistevastase
muudes
kogemus
kinnitanud
kahjulik
hir@@
hindan
arene@@
5.
väärt@@
vade
tõhusaid
tuvasta@@
turvalisust
tse
trateegia
tipp@@
tele@@
sotsiaaldemokraatide
saastekvootidega
rünnakute
püüdlusi
oskuste
loodusõnne@@
käsitlevaid
jagab
hääletusele
elamis@@
aruannet
aineid
26
toetuseks
suuremate
siseturu-
sekkumine
pädevust
pin@@
mite
lit
kusele
edasise
arutleda
ajaloos
2007-2013
ülejää@@
vatesse
vabatahtliku
tin@@
teatas
strateegilist
sellistele
sees@@
seadust
rõhku
ohvri@@
mates
liikuvus
leviku
käesolevas
kodanikega
kahjusta@@
juhi@@
gem@@
demokraatlikke
aspektid
Suurbritannia
ülemkogu
Üh@@
tõde
tänasel
tekstiili@@
teemaks
sekkumist
rahanduse
nõuet
negatiivset
mõõ@@
meetodite
kujune@@
kajasta@@
itanud
isuse
hilja
fakti
elujõul@@
atu@@
4.
ümbritse@@
ääre@@
vastutav
terrorismivastase
teer@@
pidamise
mudelit
millise
lüli@@
lüh@@
korraga
kinn@@
kem@@
kauem
inimestega
asutusi
aspektide
alla@@
aalsed
Lääne@@
Liidust
võrgu@@
võrdle@@
tunnustatud
sotsiaalsele
reguleerimine
põhjalikku
nädal@@
maalt
leidis
koosneb
konflikt
kolleegidele
kindlustatuse
jagamise
asjas
alaseid
Cas@@
Ühinenud
x@@
tähtsaid
tähtsa@@
tugevam@@
tegem@@
sõlmi@@
suhtumist
soovituste
siooni
loomu@@
kuulsime
kriis@@
kasvava
jätkusuutlikku
iseseisvuse
füüsi@@
eesmärkidel
Barrot
.-@@
ülekan@@
üldi@@
õnnes@@
uhke
töötavate
tööstuses
tõusnud
tippkohtumist
suutma
suhkru@@
sidus@@
rest
rahaline
olemasolevad
nõrg@@
muresid
lõhe
lide
lepingutega
eta
esmatähtis
energia-
uuringud
tohutut
testi@@
tervis
sugugi
stimule@@
standarditele
seondu@@
nõustub
mõistliku
liber@@
kamist
jällegi
hind@@
anu@@
aalselt
Sotsiaalfondi
Euroopaga
võimaldades
tekitatud
tehnoloogia@@
suuniste
semalt
muutumas
ministri@@
maininud
lid
laiaulatus@@
lahti
komisjonide
kohand@@
kindlus
igapäeva@@
häv@@
esitasin
demokraatlikud
And@@
üksikasjalikult
vastuseisu
toon@@
tariif@@
sh
rask@@
põllumajandustoot@@
põhine@@
peamise
oskusi
muutes
maal
likvide@@
liberaliseerimise
laienemise
kriitikat
keerulise
integreeru@@
atsiooni
Töö@@
Kaubandusorganisatsiooni
Ar@@
25.
õhus@@
ustel
tunneme
saada@@
põhimõttele
meditsiin@@
mahu@@
maga
lün@@
kannatada
kaasamise
innovatsiooni@@
häält
hindama
Itaali@@
17@@
vahetuse
tervita@@
teist@@
rikutakse
mõõde
lük@@
keskkonnasääst@@
keskkonnamõju
kaastunnet
elus@@
aalset
De@@
tuuakse
sõnavabaduse
poolele
pikendada
lõpuni
kultuuride
kriiside
krediidi@@
kaugeltki
kaud@@
jättes
itust
iti@@
hõlmatud
esindavad
avamine
ajutise
OSCE
viimast
tundi
tehnoloogiat
stabiilsus@@
plaan
piisavat
parandused
muretse@@
miljonite
kinnitamine
eduka
ebastabiil@@
detsembri
delega@@
atide
arengueesmärkide
algatada
tusid
taval@@
sõlm@@
reguleerivate
regionaalpoliitika
poliitikasse
pikaajalist
piima
märkimisväär@@
maksavad
kiirelt
kasutajate
iat
aktiivset
Valgevenes
ülevaate
vabataht@@
tunnistatakse
tegevuskavas
suudaks
sugu@@
solidaar@@
projektidele
panka@@
leh@@
juhtumid
ias
edasiminek
demokratise@@
allikas
Interneti-@@
vaidluste
vae@@
usub
seal@@
räägi
rä@@
riskide
olgugi
mise@@
koordineeritud
katse
kahetsust
intellektuaalomandi
imisele
hoidma
energiavarustuse
aruta@@
ard
ttevõt@@
tervishoiuteenuste
seadusliku
prognoosi@@
prognoo@@
poolset
otsima
liikuvust
kasvav
jätnud
imate
hinnanguliselt
esimeeste
edenda@@
avaldust
ülal@@
võrgusti@@
ustamisega
tuuri@@
toota
tervik@@
osalenud
naab@@
lusel
kodanik@@
kehtiva
iste@@
erand
elanikkonnast
dokumente
Ri@@
Ida-@@
väärtuse
teine@@
ste
sihi@@
püüdle@@
nõudis
mai
loovad
juhtimisel
arutasime
aalsete
,5
väljasta@@
ustamisel
töötaja
tulemuslikult
tehn@@
tegevused
teatavaks
seekord
raj@@
muuda
meedia@@
kriteeriumi@@
kolmandates
idu@@
gema
endaga
Sch@@
30.
19.
võimaldama
valmistatud
tõendeid
temaga
takistusi
süstemaati@@
reitinguagentuuride
piim@@
otsustav
lugem@@
liikumis@@
lepitus@@
kavanda@@
kaasaeg@@
jateks
häiri@@
eesmärkidele
Koh@@
vastuvõtmisega
vaadates
tut@@
toodetele
tehingute
sotsiaalpoliitika
põllumajanduses
palutakse
paljudest
ostu@@
kodakond@@
kasutamisel
jõuame
eeliseid
algas
adid
Zimbabwe
valitsusväliste
tungi@@
tehnilised
spekule@@
sissetule@@
range@@
projektis
märke
mitut
küsin
kättesaadavad
käsitlevas
isust
isik
ennetus@@
emis@@
astest
Se@@
Nabucco
üksteist
ühisele
vajadusega
tuseta
tundma
tte@@
tro@@
toode@@
sotsiaalselt
rikkumised
peamist
märksa
kohus@@
inime@@
erime
demokraatlikult
Sudaani
tiga
sunnib
sun@@
palga
matute
matel
linna
lihtsustatud
keeld
kasutuse
isteks
ina@@
ennetamise
ekspertide
davat
üleilmne
vastanud
valitseva
vahendiks
tööjõu@@
septembris
rände@@
partnerlust
osta
nähtus
mitmesuguseid
kliimamuutustega
kalanduse
imporditud
ene
andsid
väljendas
tegin
kõiku@@
käitu@@
kuulata
keelu
kasutatavate
karistada
juur@@
aluslepingu
Mehhiko
2004
tunnus@@
tasite
seosta@@
peti@@
ohtude
mõninga@@
mur@@
meelt
kol@@
kaitsmist
itus@@
ilmneb
hil@@
eris
ast@@
alam@@
IND
2015.
ülesanded
üldiste
vastutusele
vahenditele
ulatuslik
tehtavate
sünd@@
suletud
sotsiaal-
raskused
raportid
otsida
osaliste
mp@@
kohalikke
arvavad
ametivõimude
Iraan
ühtekuuluvust
vit@@
vastutustund@@
sünni@@
sõnu@@
sõltuvust
suutelised
liikide
inimõigus@@
ilistele
ettevõte
ebainim@@
asuvate
arutelu@@
ari
arengus
aastase
aad@@
DEM
15.
üliõpil@@
vastused
vahendina
uuringuid
tõhustatud
teoks
tahte
soovite
sekretari@@
põhise
punkti@@
parte@@
otsustavad
otsustab
nimetatakse
isi@@
hinnang
hetke@@
elundite
aland@@
He@@
õiguslikud
täiendavate
tunduvalt
tavuse
sund@@
rida
reaktsioon
rahvusvahelistes
parlamendiliikmetele
majanduspartnerlus@@
lõplikult
komisjon@@
kokkulepped
kodus
jää
juuru@@
analüüs
väljakutsetega
väita
viisade
vig@@
tööst
terroristide
tekki@@
taastuv@@
suutlikkuse
seaduslikult
sat@@
omaks
olukordades
mõnedes
keid
järjekordne
imet@@
eksisteerib
eirata
artiklit
vormi
viitas
reklaami
rase@@
presidenti
plaan@@
märkust
mitmekesisus
likviid@@
kriitika
jälgib
inguid
alaga
Fran@@
tõhus@@
tugevad
tekkida
tegel@@
tagat@@
säte@@
säilitamiseks
pikemas
pension@@
lennujaam@@
konventsioon
kohtlemine
investe@@
finant@@
entide
aitäh
af@@
VKEdele
vastastikust
täies
tragöödi@@
tegemisel
rääkimata
rist
põhimõttest
pida@@
pakkudes
märtsi
mal@@
lõige
külas@@
kinnitust
kerge
kaitsega
institutsioonides
erimata
arvab
Kar@@
31.
tõkked
tõhusus
taastuvate
sealjuures
põhimõtetega
listele
käegakatsu@@
kahekordis@@
hädasti
hukku@@
atust
atuse
väljendu@@
vähendam@@
vel@@
vanemad
teenis@@
teemale
suuniseid
standard@@
san@@
saavutati
palu@@
osale
minutit
merendus@@
lühiajal@@
lõig@@
leidmiseks
lahendus@@
lahendamist
kuks
juhtima
hiljutised
esialg@@
Liberaalide
2000.
ümberpaigu@@
vastased
ute
tsen@@
tegurid
teaduse
soovitus@@
puudu
poliitilisele
organisatsioon@@
lisandväärtust
liin@@
kokkulepitud
imis@@
hei@@
esitaja
eb
arendustegevuse
adus@@
ühtse@@
vähemuse
uurimist
täitmine
topelt@@
soodus@@
raamisti@@
meedet
mainisite
kusest
korr@@
kaudselt
kaubanduspoliitika
kaitsepoliitika
elule
duse@@
autonoom@@
arendama
ara@@
Mul
ES@@
äärepoolse@@
võitlemine
võimalusel
vähese
usku
teadlaste
tarbimise
tage
struktuur@@
strateegiate
soovitakse
posi@@
poolsete
näiteid
mag@@
kontrollimise
konda
keelata
heidet
halvasti
fonde
eelarvega
vaesust
ulist
töökohta
tuhandete
tagasilük@@
sure@@
rõõmus
rõõm@@
režiim@@
põhjustas
pakkunud
mõel@@
lõimu@@
kooskõlastada
imaid
asjakohaste
algselt
abile
Sotsiaal@@
See
Pe@@
In@@
tuur
sõnumit
reguleerimist
rahvastiku
lennun@@
koguni
kogemuste
kir@@
kasulikud
kaga
esimesed
Egiptuses
ühtsuse
võime@@
viidatakse
tohutult
tingimustega
tasanditel
sobivad
räägitud
refor@@
rahvas@@
põhjuste
puudumist
mõnele
loodusvarade
lammu@@
kirjeldatud
kahes
infrastruktuuri@@
hääletamist
esialgse
eespool
edendamist
demonstre@@
bussi@@
biokü@@
tõsiste
tooma
tingimata
tehtava
teenistuse
takistused
suhtumine
sillu@@
s.o
programmiga
praktiliselt
otsene
niimoodi
naistel
naas@@
märkuse
muutuks
küsimustest
kuude
kompromiss@@
kavatsen
karm@@
halduse
aruannete
aas@@
Iraagis
üksmeel
väljakutseid
volinikud
vist
unustagem
täiustada
teele
suulise
sulgeda
pöö@@
presidendi@@
kultuurilise
jäin
isikuid
imisest
hinnatakse
ettevõtluse
elusid
ekspordi
ebavõrdsuse
dokumentidele
automaat@@
ülemaailm@@
õiglaselt
vahendi@@
vaban@@
uus@@
tõr@@
tarbijatel
sank@@
poli@@
ori
mõistnud
külmu@@
kohaldamisala
energiast
am
aktiivne
Partei
Kristlike
Islandi
17.
vahetada
tähtsate
rääkim@@
ping@@
parim@@
nõuetekohase
neoliber@@
majapidam@@
likkusest
kärp@@
juurd@@
interneti@@
endust
deklara@@
Maroko
č@@
vältima
tundlik
toimi@@
teadusuuringuid
tahaks
süsteemile
rahastamisvahendi
mets@@
lükkas
lükati
kulu
finantssüsteemi
deni
alustel
abistamiseks
õigustele
väljakutsetele
valikut
vaeva
tusena
toetades
tegude
teede
tavust
osaleb
käitumine
kutele
kolleegi@@
ideks
heakskiit
ettevaatlikud
eli
ar
Europoli
Car@@
vähenemine
vedu
vaat@@
trah@@
suurenemine
pettumust
one
nõukogult
modernise@@
konsolide@@
kokkulepe@@
kohustustest
kalli@@
kaitsmisel
istri@@
hindam@@
globaliseerumise
edukaks
bloke@@
ausad
arutelust
Sri
Schulz
R
Küpro@@
väljendab
vale@@
ulatus
töötatud
sõbr@@
sisserända@@
semaid
pla@@
pidev
parimad
kõrget
konkurentsivõim@@
koguda
keskmine
kehtestanud
kaotamist
kahjus@@
juhitud
jaga@@
ingute
gud
endine
endalt
aastapäeva
Türgis
ühises
välismaal
vastases
resolutsioonile
reak@@
parlamendikomisjoni
näl@@
neilt
mest
lõppes
luge@@
lob@@
liigub
las
lahendam@@
kogenud
eelarvekomisjoni
arutatud
Julgeolekunõukogu
45
viidata
toiduaine@@
sum@@
soorita@@
poliitikute
olulise@@
nägema
lõpu@@
lõpetan
läbikukku@@
julgusta@@
itega
esti@@
dagi
Eesti
varusid
valmistada
vaeste
teada@@
põlvkon@@
olemasoleva
langeb
laienemine
kustu@@
kodanikest
eluase@@
ebapiisav
damis@@
USA@@
Strasbourgi
Pi@@
Barnier
0-@@
valitsusega
vabadus@@
tähendavad
taksite
solidaarsusfondi
signaali
sadu
positiivsed
mõjusid
mitteamet@@
likkusega
liht@@
kontroll@@
edukad
edasiminekut
dadest
assigneeringute
Si
Kyoto
õppima
umb@@
tude
ton@@
tehniline
ressurssi@@
otsustasime
nel@@
merel
liberaal@@
kius@@
kavatse
kasutamisele
järjekindlalt
hõlbustada
heakskiitu
enim
energiaga
elukestva
dim@@
ajalool@@
GA
ved
tugineb
toimuda
teeri@@
näitaja
numb@@
negatiivne
meetodi
kulutada
koolide
kohtus@@
kogukond
keskkonnas
kavasid
esindajatega
ekspor@@
ek@@
astus
arv@@
Sloveen@@
ülevaa@@
vähenemise
töökoha
tähts@@
tsuse
siseturgu
sealt
seadmete
reisijatele
reisida
pärastlõunal
mitmesuguste
liikmesriigist
lepitud
käibemaksu
kvoo@@
kis
kavatsete
istust
individu@@
igasu@@
hääl
bürokraati@@
areenil
abist
võrrel@@
tulenevate
toonitada
süsteemist
sisalduvad
põllumajandusettevõt@@
puudust
parimaid
mootor@@
liga
kuulsin
kutsu@@
kirjad
jalt
elektroon@@
elanik@@
eesistumis@@
deta@@
artiklile
andust
alalise
Daamid
ühendust
veo
vara@@
vajadused
usuvad
tõus
tustel
tehnilist
suurendavad
sissetuleku
röö@@
rakendamisele
märku
madal@@
kõrg@@
ebaõig@@
der@@
avad
ametnike
üksikasja@@
õnnetuse
tõst@@
täiendada
toime@@
põllumajandustoodete
patsientidele
pas@@
nõuetekohane
mosle@@
mingisugust
lääne@@
läks
lennujaamade
jälg@@
islam@@
isin
hindu
element
edi
avalduste
autotööstuse
austamist
andmekaitse@@
alistele
Serbi@@
12.
üldsusele
ühtsed
vateks
tunnustamine
totalitaar@@
teksti@@
tekivad
tegevusse
suurendades
sisserände@@
selgus
pakt
mõlemat
mõlemal
lubanud
lad@@
käima
kski
kolmapäeval
kite
kaupu
institutsioonidevahelise
ges
baasi
aruteluga
Sta@@
55
ühehääl@@
võimaldanud
väheneb
valitsemistava
vahetus@@
uses
tööpuudus
tsioonidele
sol@@
ruttu
ren@@
pettu@@
paindlikkus
paig@@
oon
näitajad
mõlemale
mäng@@
liigume
laen@@
käitumise
kutsus
konsensuse
kohti
kauge@@
kasutuselevõtmine
kast
jõudu@@
antava
Lan@@
EM@@
2001.
üsteemid
õr@@
viibi@@
vabadusele
toimuv
tihedam@@
terves
tehnoloogil@@
tasakaalus
tajatele
sellistel
saavuta
saadi@@
referendu@@
nõudluse
norme
märkus@@
lõpuleviim@@
kutsunud
koostööks
kohas
kiit@@
järeldus@@
instrumentide
hõ@@
haiguse
ebaõnnes@@
asjaomased
asjaomase
aliselt
väljapoole
vaid@@
vaenu@@
tõestanud
siduv
samba
põhjaliku@@
piirkondlikud
pensionis@@
peal
mõrva@@
lepp@@
leidub
kogem@@
endu@@
ebaseaduslikku
algab
Komisjonile
F
äärepoolseimate
vastupidiselt
vanade
unusta@@
tööliste
traag@@
tori@@
teenida
tarbimist
tagatisi
suurene@@
sarnased
raskem
piirkonnale
piir
neljas
minuga
maksudest
lä@@
kuste
konstruktiivse
konkuren@@
kile
kel
jah@@
ikide
erilise
erakorral@@
demokraatiale
alternatiivsete
Man@@
Fond
vahetus
ulatub
ud@@
tunni
tamatu
tagajärg
osapooled
näete
millegi
lapse@@
kamine
kaasamist
ivi@@
isus
anne@@
Bu@@
võrgustik
vähim
vastastikku
sõltumatust
roh@@
rahanduskomisjoni
püha@@
päraselt
peaksite
majanduslikus
lõpetamiseks
lisem
kontrollis@@
keskse
kasumit
järgse
horisontaal@@
ebavõrdsust
detsemb@@
deklaratsioonid
alisi
ajakirjandus@@
aduse
Si@@
väidetavalt
uutest
usta
ungar@@
tata
sõnul
spe@@
soov@@
raportööri@@
põhimõtte@@
mandaadi
laienemis@@
laenude
kulutused
konsolideeritud
konflikti@@
komisjonist
kiitnud
keskendutakse
kalapüügi
jäl@@
häbiväärne
eita@@
So@@
5-@@
õigupoolest
võiksin
toimivad
tingimusteta
tingimustele
teisiti
tegelike
siduda
rünnakud
põhiline
paigu@@
määrused
meetodid
mainiti
käsikäes
kodanik
kindlam@@
kehtivaid
kehtetuks
järgmistel
juurdepääsu@@
istatud
erapoole@@
beli@@
banaan@@
anti@@
Kon@@
Kesk-
400
üleeuroopalise
õiguslikke
viisid
versioon
vabatahtlik
tunnustan
tsu@@
tarbijakaitse@@
selgesõnaliselt
saalis
raamat
peaministri@@
miljonid
meetodit
käimas
konnas
kohad
isime
ikest
erinevuste
aprillis
aastane
Rooma
Me@@
ühendus@@
ühegi
öö
õiguskomisjoni
vabad
tulevikuks
südam@@
ral
piiriülest
piimatoot@@
panevad
osalised
nõusoleku
nädal
naiste@@
majanduslikust
kurjategi@@
institutsioonide@@
igapäe@@
esitamist
erakord@@
eira@@
eesmärkidest
blo@@
arvud
arenguga
Fi
õigusta@@
väidab
tugevdamist
tekkim@@
taotleda
raportisse
osapoolte
nädalatel
meeskon@@
lek@@
land@@
kolmele
kokkuleppeid
kohustusliku
keerulised
karmis@@
järgi@@
esine@@
eraldatakse
eeltingimus
arvamuste
tootmiseks
toimetule@@
teadmiste@@
taotluste
suund
sooviksime
sii@@
sidemeid
salt
rahvatervise-
rahulolu
poo@@
peegeldab
liiget
kvaliteet@@
kohtumist
kaubanduses
imas
evad
eti@@
elun@@
arust
aruanded
arsti@@
aliku
alanud
Ch@@
Barcelona
1990.
18.
võimude
vooru
vaktsine@@
teis@@
tehnilisi
taba@@
sat
rahvusvaheliselt
rahuldada
protektsionismi
pidas
peeti
naks
mõningate
märgitud
millises
mik@@
lubadusi
loomisega
loobuma
kõnes
kohutav
kohta@@
katsu@@
kapitali@@
eesmärgile
daja
alas
Bar@@
Alzheimeri
Šveitsi
üldeelarve
vane@@
vahelises
skanda@@
reguleeritud
pööratakse
protsessile
parandamist
paketiga
otsuse@@
organ
ohte
nõrges@@
mõõdet
minu@@
käia
kvaliteediga
kohalole@@
kaasotsustamis@@
isole@@
ebavõrdsus
dikta@@
ania
Regionaalarengu
O
ülikoolide
õigusloom@@
vähendamisele
viimasena
vanan@@
täiskogule
tulemuslik
toonita@@
tegutsemise
opositsiooni@@
ohtlikud
määratakse
märgistamise
miljon@@
ktor@@
koormuse
hüvitist
dusi
arutleme
Ukrainas
Cor@@
võtmiseks
vajalik@@
vahelisele
turult
toon
teatada
tagem
selliselt
sekkumis@@
pidam@@
organisatsioonidega
mõistavad
miljonile
main@@
küsimuseks
kolm@@
kohtlemist
kohtade
ked
kapita@@
kahtle@@
eten@@
erinevat
edasist
acquis
võimud
voolu
veebruaris
tsioonidega
sisseränne
selgust
ravimi@@
põllumajandust
puuduta
pun@@
maail@@
laenu
keskmiselt
isa
esimeses
erimeel@@
eraldamise
endati
eline
eelarvete
damatu
alae@@
Kariibi
Bal@@
95
ühisraha
võtaksid
vis
vest
vein@@
uudis
useid
tõusu@@
täius@@
turis@@
transpordis@@
tarbeks
staatus
pädevus@@
programmides
piisab
peaksin
oni@@
missioon
madal
lahe
kõnealuseid
kättesaadavuse
klas@@
kaitsevad
jätkuva
hääletasid
get
Iisraeli@@
ülitähtis
ülemaailmset
õigusel
võitlevad
van
toreid
tise@@
teadmised
soovitust
seadused
põhinev
põhimõtetele
projekti@@
muudaks
mees
materi@@
likumat
käivitada
idelt
geograafi@@
ettevõtja
erineva
enu@@
arusaam@@
alikule
Ro@@
Korea
vajadustega
tunnistab
toetused
teatis
strateegiast
sotsiaaldemokraadid
soovitatakse
rikub
reguleerivad
ram@@
poliitikaid
partneri@@
müügi@@
mängivad
mistele
midele
keem@@
kaalut@@
julgustab
jagame
andmetel
väljakutsed
viies
vabakaubanduslepingu
usel
terrorism
teadusuuringud
sätestab
suuna
spetsiaal@@
ringi
regioon@@
pp@@
pooldab
pei@@
nõudlus
nete
materjalide
man
majanduslikule
laienemist
kooskõlastamist
kohtusüsteemi
kaubandusega
jätkamine
gh@@
finantssektori
arusaam
arengupoliitika
Kree@@
Di@@
vetes
toimuvat
tavates
tavam@@
põllumajanduspoliitikat
probleemist
praegusele
perioo@@
niisuguste
lahenda
kõig@@
kuritegu
kooskõlastamise
kodifitse@@
kindla@@
inimesele
fooru@@
ettenäge@@
avaldatakse
ati
arvamused
Kuu@@
üleujutuste
võrdsuse
veini
vaatlus@@
ut
tööhõivele
tuli@@
tki
tingim@@
tase@@
põhiküsi@@
prote@@
piiridel
ner@@
mõõtme
loetelu
kiiduväärt
hääletamise
hulgast
elluviimiseks
eb@@
austatakse
andmeba@@
ajada
23.
ülikooli@@
ülevaade
ühendu@@
äri
usaldusväärsed
sügavat
ss@@
registri@@
märgib
midest
majanduslanguse
liitu@@
korruptsiooni@@
kiitust
iseloom@@
fraktsioonis
atraktiiv@@
algatatud
aktsepte@@
Vaikse
Guantánamo
tõestab
tõele
tasand@@
seire@@
rühmad
püügi
päevakord
pri@@
poliitilisel
olgem
müüa
mõjuta
lisama
isite
isikliku
gustes
eva@@
asjaga
ambitsioonikas
Hiinaga
võltsi@@
viiv@@
vastav
vajadusel
um@@
tuste@@
tunneb
suurepära@@
strateegiliste
riigihan@@
resolu@@
põhjusi
põhimõtetest
presidendile
ootustele
olevatele
nõustunud
mitmesu@@
menetluses
menet@@
maksta@@
lugemise
käitumist
kuritegusid
jõupingu@@
iseloomustab
ignore@@
hoiab
esialgne
dramaati@@
28
200@@
üksteise
õiged
viivita@@
vastaseid
turge
too
toi@@
tasusta@@
takis@@
suuteline
seisus
sagedamini
peh@@
pankro@@
organisatsioone
olulisemaid
märgista@@
mit
lisa
laag@@
kinnitan
karistus@@
fir@@
ame@@
aline
ajalooline
SKP
ühtekuuluvus
äriühingu@@
võrrelda
võimuses
varade
tootjaid
tohu@@
tini
tehingu@@
sõnastatud
saavutus
puudusi
pensionide
panga
normid
liid@@
laiendamine
käsitles
kavast
kahest
jutt
ism
hoon@@
erandeid
ee@@
damisest
alustanud
34
2014.
võla
vähendatud
vastutustundlikult
valdkon@@
tulude
toimuval
taime@@
suhe
saavutamist
reguleerimis@@
rahastatakse
proovi@@
populaar@@
parandamisele
net
must@@
kaebuste
ingi
idu
identiteedi
endamisel
direktiivi@@
andus
amb@@
Kau@@
ühesu@@
õn@@
võrdset
võeta
vabadusel
vaata
ummik@@
tõsiseltvõeta@@
teadlased
lubatakse
lennuettevõtjate
kinnis@@
kindlustama
jõustub
juhi
hõlma
esile@@
energiatõhusust
elemente
eeldada
arutelule
Vab@@
Soome
šoke@@
üksteisega
väljasaat@@
vabadusi
transporti
tehnoloogiaid
tegureid
sissejuha@@
rahvusvahelistele
pi
peaministri
palkade
oom@@
ohud
läbirääkimistes
läbipaistvad
kõrgem
kre@@
kooskõlastamine
koolides
konsul@@
kohustuslikuks
kaubandus-
iseloomu
inglise
garan@@
energiajulgeoleku
eelarvesse
avalikke
arve
arenguriikide
Malta
Bulgaarias
üleeuroop@@
än@@
väljavaateid
varju@@
uurimine
tuga
tagam@@
taasel@@
säästa
suuri@@
stsenaari@@
soojenemise
sk@@
rüh@@
positiivselt
perekonna
peitub
mõjuhinnan@@
mängi@@
muudatusettepanekuga
lõik@@
kuritarvita@@
kude
kohased
kindlameel@@
kest
kajastab
järgimine
juulil
innovatsioon
elanikele
SKPst
New
Aafri@@
ves
vaidlus@@
vaesuses
uskuda
usaldusväärsus
tervishoid
süüdistada
stiimu@@
soosi@@
seos
sele@@
relvastatud
reageerimise
reaalselt
püüdes
praktika
piirkonnast
parimal
osakaalu
organid
näitasid
määrat@@
klaus@@
info-
imperialist@@
hõlmata
ettevaat@@
bus@@
atut
ained
aalseid
Investeerimispanga
vigade
toimimine
territooriumi
teatavat
sügisel
siit
seatakse
ratifitseerinud
raskustes
projektiga
politse@@
pettuse
muudatus
liberaliseerimine
leid
langetada
kti
koormust
kokkuhoiu@@
keer@@
keelte
iseid
heakskiit@@
elluviimise
ebat@@
alikult
ajutine
ajaga
adi@@
14.
üksmeel@@
võidu@@
väljastpoolt
tõhusama
toimuks
toimiv
tamises
strateegiale
pakkus
nimekiri
linnades
künn@@
korraldus@@
koormat
kohelda
kohaldama
kodanikukaitse
esind@@
elektri-
astes
asjakohast
ametis
akti@@
aastaste
aali
Chris@@
ülesannet
üksikisikute
väärsed
valikuid
täpsusta@@
tuumaelektrijaam@@
tunnis@@
tulenevaid
teistesse
sünnitus@@
ravimeid
rahast
rahaliidu
põlis@@
pidamis@@
ootused
nt
neri
miseta
kõrgete
ksi
kohustustega
järgides
esitamine
energiasääst@@
dollarit
alkoholi
alismi
agentuur
Tahaksin
Sa@@
Dublini
Bulgaari@@
&apos;d
ük@@
vähendades
volinike
varustus@@
vamad
temaati@@
tegi@@
sõlmimiseks
sh@@
reaalne
pädevuses
käe@@
kuku@@
korrapäraselt
kaotavad
jätkuv
iteen@@
istamist
iri
investorite
idapartnerluse
föder@@
etn@@
energeetikakomisjoni
elise
eil@@
eelda@@
ea@@
abor@@
Balti
ühendab
väidavad
vorm
uuendustegevuse
tohutuid
tegutsevate
sisaldama
selgitama
reaalsus
raskete
poliitikad
piirkondlik
osalust
nõude
moodi
kümnen@@
käest
ellujää@@
eesistujariig@@
aruande@@
tsiviil-
teenivad
tagamist
rühma@@
reaktsiooni
piirkon@@
lähe
loogiline
koordineerimise
kohalda@@
keel
karistused
järgnenud
istesse
hõlmaks
hariliku
dki
ck@@
V
Somaalia
vastuvõtmiseks
varjupaigataotle@@
tulemu@@
tegelikkus
teerimis@@
sotsialistide
soovida
reitingu@@
pühendumist
pä@@
programmi@@
ots@@
olulises
masid
listel
lahendamine
kõigele
kooli
kehtiv
kehtestab
karistuste
kannavad
kalapüü@@
kahj@@
järgimise
hukkam@@
eelseis@@
dan
ER@@
+
üldjoontes
vägede
tsime
toote@@
toimuvate
tiku
sioon@@
selleteem@@
põhjusta@@
põhjendam@@
päevadel
meelega
maja@@
käig@@
keva@@
kasutus@@
jõuavad
juhtumi@@
islami@@
huvidele
eriv
ec@@
Y@@
Ha@@
En@@
ür@@
väärset
vette
tüü@@
tõkete
toetasid
taotlust
sõit@@
suvel
samasugune
riigiks
raporteid
puhta
olulisemaks
ohutu@@
mõtteid
mõjus@@
märkuste
lahendatud
kuritarvitamise
kommun@@
kit@@
inves@@
imes@@
hindame
diskrimineeri@@
argumen@@
areneda
Rompuy
Raport
Komisjonil
IT@@
EFD
ütlete
ülemaailmsel
ühisest
välisteenistus
viie@@
vabari@@
tõstab
tunnustamist
tum
teistsugu@@
sõltumatus
siduvad
seteks
sammu@@
piirangu@@
perede
parlamendid
osalejate
omada
mõjuga
mõ@@
keskus
kasutamisest
kalapüügi@@
jagavad
ergutada
erandi
elama
eeskirjadest
dadega
ajandus@@
Kesk-Aasia
Gruus@@
Frontex
2012
00@@
väljavaated
täpne
tunnustatakse
tervitab
tegutsenud
stele
soovitab
seitsmenda
sajandil
protsessiga
meeldib
mat@@
lubade
lennunduse
langem@@
kriteeriumidele
kompromis@@
kompon@@
km
kaotab
iksin
igatahes
hääletamisel
gide
eet@@
arusa@@
aim@@
Rumeen@@
Ba@@
ühenduses
võeta@@
valitsusel
täht@@
tervitatav
tas@@
suurenemist
sureb
summasid
resolutsioonide
nüüdsest
majanduskasvule
kõrgetaseme@@
konflikte
keskendunud
justkui
istlik
em
edasisi
daksid
automaatselt
ametnikud
allikaid
alikud
õiguse@@
vu
valitsusi
vaevalt
tamatult
suurust
suuline
strateegiaid
rea@@
peatük@@
paraku
ner
maksumaksja
maan@@
loomulik
kuludest
korralda@@
koostööst
kombine@@
kannab
institu@@
hindab
ettevaatus@@
edendamisele
andu@@
amata
150
13.
üllatunud
õud@@
vastutusest
vangi
tuletan
toimiva
tina
teguri@@
tegelikke
teerimise
tasku@@
tae@@
sätestada
sooviks
soodusta@@
riku@@
red
pideva
osalem@@
ollakse
ohj@@
mõning@@
määrab
likumalt
lapsen@@
kommenteerida
kogus
kloon@@
juhtrolli
jari@@
investeerimine
ingut
gik@@
auhinna
alaline
Val@@
Rahvusvaheline
Pakistanis
16.
valge
uhked
tähta@@
tootmisest
toimusid
tagant
suurune
suju@@
sammuks
res
raportöörid
partnereid
otsusele
osalise
olukordi
näited
neb
muuhulgas
ministri
kompromissi@@
jõukuse
juhtis
infrastruktuur
gus
ettevõttes
etappi
etap@@
edendades
abisa@@
Majandus@@
Keskpank
töörühm
tunnustama
toimu
sotsialist@@
seisu@@
rahumeel@@
põhieesmärk
petitsioonikomisjoni
paigal@@
operatsiooni
oleneva
maavärin@@
lähene@@
liidu@@
lepi@@
kujunenud
kokkuleppega
kohustuseks
kaitstakse
järelevalves@@
hirmu
finantsteenuste
ff@@
enti@@
eakate
bar@@
ületab
ühtlustamist
tne
teadmiseks
saabunud
rääkisite
revolu@@
realistlik
rasked
pikaajalisi
omandi@@
ohjel@@
märgid
motive@@
mingisu@@
maksud
leppinud
koolis
kirjutanud
kasutuselevõtmise
kaasnevate
innova@@
impordi
hävitada
hiljutise
davaid
asuva
allikate
aale
Valuutafondi
Ta@@
ümberas@@
üleujutused
väärtustele
viivi@@
veelkord
vaen@@
teavitus@@
tagasipöördu@@
suunda
soovim@@
silmis
sellisele
seast
sarnane
puuduse
profession@@
parlamendikomisjon@@
novembri
koju
kohtades
kasuta
jõutud
jätmine
järgib
interneti
esime@@
edasilük@@
avalik-@@
Venemaale
Mugabe
24.
väljendama
valit@@
tugi@@
toodetega
tikku
teatanud
sõl@@
skepti@@
sihikind@@
septembri
sektor@@
reguleerimisala
põhine
puhke@@
pressi@@
passiiv@@
parlamendiliiget
osutuda
muudatusettepanekutega
mobilise@@
lähenemisviis@@
lehekül@@
kriitiline
kellegi
kaevand@@
jõupingutustele
jätma
julgustama
endus
endamisele
Gruusias
As@@
ülemine@@
õigeaegselt
vile@@
vastavuse
tulevane
tsioonis@@
til
terrorist@@
tehni@@
struktuur
sobiva
põllumajandusele
pr@@
ombudsman
oludes
nõrk
mõningad
määrasid
märga@@
lühi@@
loodusõnnetuste
likesse
late
käsitleme
koostamine
konsensus
kondade
kliimamuutust
kehti
integratsiooni@@
ideede
esitavad
esikohale
ellu@@
eelarvekontrollikomisjoni
arendam@@
Mal@@
ükskõik@@
ärg@@
varusta@@
vabandust
tõuseb
tagatised
suutsime
spetsi@@
rahaliselt
pettuste
palka
nõustuma
makseid
lõpetamist
lõikele
korraldus
kontrollima
kokkus@@
kodanikku
islami
inimes@@
hääletab
hoidu@@
hinnangul
doonor@@
delegeeritud
asutustega
assamblee
andmetele
alile
EA@@
tähtsamaid
tähistab
tor
teedel
tavapära@@
suurtele
rünnak
puudutas
olukordade
näite
kuses
ksu@@
inimkonna
hääletusega
hiljuti@@
ettepanekust
elektroonilise
elav@@
Sahharovi
EC@@
võrdõiguslikkus
võita
väliste
valitsusjuhid
vaesusega
ulisi
tõuke
tõelisi
terviku
talun@@
tahate
sõlmimist
sulgem@@
sisemajanduse
sile
samade
saatma
roheline
ressi@@
reguleerimata
põhiliste
päl@@
poliitilistele
pank
lubas
lairiba@@
kooskõlla
konstruktiiv@@
kommunist@@
koge@@
keerulisemaks
kalurite
jala@@
infotund
haka@@
ajad
Pa@@
Or@@
üksikasjad
õigeaeg@@
vesi
vastutama
valitsemis@@
valinud
valdkondadele
uude
useks
ulatu@@
ukse
uga
tul
toetaks
taot@@
säte
surnud
su
rub@@
roo@@
religi@@
lähi@@
loome
likumaid
kuulasin
korrige@@
koostis@@
kirjade
keskkond@@
kavatse@@
haridus-
gel@@
ettekuju@@
eme
eesistumine
diskrimineerimis@@
dialoogis
devahelise
dal@@
bana@@
allik@@
aliseeru@@
Vene@@
Michel
Hispaani@@
üritab
õiglast
Ühendatud
valijad
ttevõtete
tside
suurendanud
sul@@
prioritee@@
pooldame
pikaajalised
pikaajal@@
pani
nüüdisaeg@@
mitmepool@@
läbipaistvamaks
juhte
istid
isj@@
hoole@@
geograaf@@
formaal@@
finantsperspektiivi
etuse
esmakordselt
esitasime
esimeseks
elemendid
eksperdid
do
Venemaad
Bel@@
väljatööta@@
tugevam
tsioonides
teg@@
teete
südametunnis@@
riga
põllumajandustootjaid
päevakorra
puudutav
poliitilistel
piisa@@
piirkondlikku
palub
otsest
mõistetav
linnas
liha@@
laialdaselt
käivad
kuuleme
kordi
kogune@@
kiireloom@@
jata
hindamisel
esindajaid
asjakoh@@
To@@
Jaapan@@
Bo@@
võrdlus@@
vabastamist
tööandjate
teistsugune
tasemega
suuremale
sobib
senini
selgemaks
rõõmu
regula@@
oktoobri
määramise
meeto@@
liikmesriigil
kõikehõlmava
kogumine
keskmesse
jätkavad
globaalne
ettevõtetes
esmatähtsaks
endile
ametiajal
ahel@@
õigusnorme
vastastiku@@
vahetust
tõhusamat
tuumaelektrijaamade
taval
taastamiseks
sõnasta@@
samaaegselt
saadetud
registreeritud
pühendatud
pööratud
pra@@
positsioon
paranenud
operatiiv@@
musest
menetle@@
listest
liialt
kättesaadavus
keskel
kasumi
kal
kaasaj@@
järsult
intellektuaal@@
inimõigustega
haju@@
gad
domine@@
deklaratsioon
atöö@@
akti
aitasid
ă@@
võrdõiguslikkust
väärtuslik
väg@@
viisa
varjata
valuuta@@
valitsustevahelise
tööstuspoliitika
tuues
tunnistust
tsoon@@
tsiteerin
tegevuseks
tagamisele
sõnavõtud
sil
seaduse@@
praktilisi
piis@@
pes@@
paketis
osalesid
osades
müügi
mõjuvõimu
muide
materjali
lõimumise
lubamatu
lahenduseks
kümn@@
kõnealusele
koosne@@
kontakt@@
kiidab
kasutataks
kaheks@@
egi
anna@@
aastakümneid
Türgiga
III
2050.
ühiskonna@@
väärselt
uuenduste
ummi@@
tähtaeg
tutele
tervishoiule
teri@@
süsinikdioksiidi@@
sõj@@
sulgemise
strateegiad
sor@@
soojalt
soodustuste
selleni
rõhuase@@
rea
ratsionaal@@
rahastatud
põgenike
puudus@@
puhtalt
provin@@
perioodiks
küsimusest
kuritegu@@
kaasatuse
jätmise
istide
ilistest
iale
hämmasta@@
hoogu
heameel
eurooplastele
eelmine
eelarvel@@
bo@@
ber
arendamisel
alaealiste
La@@
CO2-@@
ärahoidmiseks
võidelnud
varjupaigataotlejate
ustanud
uh@@
tõuke@@
tugevamaks
toru@@
rikkumist
pidamine
pakti@@
osaistungjärgu
organisatsioonidele
maha@@
lisaväärtust
likeks
koolitus
jälgime
fi
erineb
enamasti
eestve@@
ce
arhi@@
Min@@
Lõuna-Aafrika
Leedus
28.
üleminek
vorme
usaldusväärse
tervet
takti@@
suurimat
sisserännet
ratifitseerimine
protsenti
poliitikavaldkondade
pagu@@
otsustasin
mälest@@
maksimaalselt
majandusjuhtimise
lubate
kuts@@
kultuuripärandi
konfidentsiaal@@
keskpikas
kannatusi
kam
jõudsime
hoiduda
hek@@
erite
edasivii@@
asjaoluga
arutlusel
Mon@@
Mi@@
Euroopa-Vahemere
EList
B
36
ulatuslikku
täida
tähtsamaks
toiminud
sõjaliste
stabiliseerimis-
seistes
pistmist
peatuda
paremate
palve@@
organisa@@
omavalitsuste
niisugust
märgatavalt
lisatakse
kurb
kanal@@
kahtlused
jälginud
integra@@
hüvanguks
hoolitseda
hinnangute
haridusse
esindajat
dane
asuma
üm@@
üksuste
ärakasutamise
väliskomisjoni
väikeettevõtete
vastuse@@
tööta
turvalisusel
sündim@@
suurendatakse
sotsi@@
sarnaste
riigipead
rakendab
põlvkondade
proportsionaalsuse
plaani@@
pikaajaliste
peetavate
peadirektor@@
omal
maksus@@
leppima
legitiim@@
käesole@@
kuludega
korraldama
koosolekul
kokkuvõt@@
kodukorda
kinnipidamis@@
jään
juhitakse
its@@
duseks
delegatsioonide
dadel
autori@@
atest
arengumaa@@
ajakohasta@@
Slovakkias
Da@@
ümberkujun@@
ülemineku
vältimatu
vähim@@
tõelised
tug@@
tt
tore
terrorismiga
tekkis
tavatel
tajaid
saavutasime
reformida
rasvu@@
rad
pärine@@
parlamenti@@
olulisele
ohustavad
märgitakse
mides
majandusarengu
mainitakse
lisamine
kiiremas
kerkinud
jaanuarist
he
ebam@@
diktaator@@
bil@@
Po@@
vasak@@
vaadake
teatava
tavus
sõbrad
soolist
siinjuures
sid@@
seitsme
romi
reproduktiiv@@
praktiline
parem@@
näidet
määrad
märkimisväärsed
mistel
lepingusse
lahkne@@
koordineerida
kontrollide
kogust
kehtestamiseks
keeruliseks
keerul@@
järkjärgu@@
eva
elist
edendatakse
amatu
alasid
Mina
ülekaalu@@
vett
turust
tsist
tised
teeninud
sünergia
sõnavabadust
sooline
siseneda
reisijad
rahvusvahelistel
profi@@
paindlik
ohver@@
mõtleme
mängu
minul
mend@@
lõpeb
liikmesriigile
liiguvad
käsitlenud
koorma
koondada
kontrollimine
konkurentsivõime@@
keskuste
juhtu
hoitakse
hilinenud
energias@@
ametlik
Rootsis
Mercosuri
Ab@@
väed
uuring
uti@@
tüdru@@
tulene@@
territooriumile
teeksid
rõõm
rangeid
parlamendikomisjonis
palestiin@@
osaluse
moo@@
laiendamist
kõnelejad
kvaliteetse
korraldamise
kohalikele
ilised
igat
hinnangut
ere
elektri
atult
ande@@
alustades
ajutiselt
Tšeh@@
Kosovos
30@@
&apos;Ivoire
vamalt
tühistada
töötus
toit@@
toit
sõltumatud
säästvat
stus
stu@@
sar@@
rakendanud
rajatud
parlamentaar@@
paik@@
negatiivse
naaberriikide
muutust
läbiviim@@
leitud
kohtus
klassi
kinnitatakse
jõudis
jätkuvat
institutsioonidega
hääle
go@@
arusaama
aine
SKTst
Lissabonis
EMÜ
05
õigusele
x
valitsevad
uks
toetusega
teod
tegusid
suurenemise
sidusrühmade
sidemed
rasket
rakendavad
põhjal@@
põhja
projektile
patsi@@
organise@@
nõudmised
nuks
migra@@
mani
käibe@@
kontin@@
kehtestati
kasutati
istega
euroga
enamikus
alad
õiguses
ärahoid@@
väiksemad
vesin@@
vastas@@
valv@@
vabas@@
tsükli@@
sõlmimine
siirast
seonduvad
selgub
seavad
samasugust
sajad
roheliste
revolutsiooni
ratifitseerimise
raamatupidamise
programmile
problemaati@@
pikaaj@@
paber@@
olemuselt
mängima
kop@@
kontseptsiooni
kab
juhtinud
hääletuskavatsused
hulgal
etapi
bade
ausa
ametiühingute
alikku
ahela
Tuneesias
Pr
Liibüas
väljatöötamist
vita@@
viisanõude
valmi@@
turuga
tuba@@
ris
reit@@
puudutavaid
puhku@@
mineviku
mele
margin@@
mainim@@
lite
lisandu@@
laialda@@
lahendu@@
ktri@@
kriitilise
jääme
häire@@
esinenud
esialgu
ebaõiglane
Põhjamaade
Ira@@
AS@@
valitsemise
ulatuse
tõhusu@@
tähendada
tähelepanu@@
turismi@@
tulevikule
tootja
toodangu
toitumis@@
tlus
tehta
tegev@@
tagame
suurenda@@
piiravad
olulisemad
möödu@@
muudatuse
lihtsustamist
koheldakse
kasutan
järele@@
idame
euroalal
elanikkond
dusel
algu@@
Toetan
Mari@@
Hel@@
250
&apos;is
ökoloogil@@
vastupidine
varustuse
tudes
teadusuuringu@@
tarbijakaitsekomisjoni
seaduslik
rünnakuid
rõ@@
rääkisin
rahuldav
päevast
planeedi
pidid
perekondade
mistest
liikluse
kõnealusel
kontrollimiseks
kommunikatsiooni@@
kolmest
katastroofi@@
kama
kahtlus@@
jõuti
juhivad
eraldamine
eelarvepuudujää@@
65
üsteeme
ühtsust
õpil@@
võimalda
vilja
varus@@
valitsuste@@
tõkestamise
tulemustest
toode
teenus@@
sõjaline
standarditega
riiklikele
regulatsiooni
patsiendid
paku
nelja@@
makstakse
majanduskriisist
ligipääsu
kõikehõlma@@
kooskõla
kompromissile
kindlate
kindlaid
kasum@@
järgimist
juttu
integratsioon
hüvi@@
heakskiidetud
endamisega
dadele
broneeringuinfo
agi
väljatöötamine
vähendatakse
uuest
turgu@@
tunnistan
tsete
toet@@
teenistus
teenib
tasan@@
tagan@@
subsidiaar@@
standar@@
sist
saamist
rühmituste
põhjapane@@
põhilisi
paigas
oodanud
nõukogude
mõistmist
leia
kõnelda
kohaldamis@@
kinnipidamise
keskkonnam@@
kahtlustki
järelduste
immigra@@
huka@@
graaf@@
ettepanekutele
esmaspäeval
erakonnad
demograaf@@
avalikud
asukoha
aro@@
andmisega
aine@@
Türgit
Taiwani
Kesk@@
Bur@@
Brasiili@@
võimatuks
vastutustunde@@
tite
tegevuse@@
soovis
rile
põllumajandu@@
poolda
pidime
parteid
otsa
oodatud
nõutud
mõle@@
märgin
mäletan
jätkuvad
investeeringu@@
hooldus@@
hoog@@
hindamiseks
eurole
avalikkusele
ametlikku
algatusega
ajakirjanike
Ru@@
Lanka
väiksema
vasti
valdkonnaga
toetusele
tihe@@
tarbijale
taal@@
silmapaist@@
rõhutaksin
risk@@
ratifitseerimis@@
rahaga
paki@@
osaliseks
määrusi
küü@@
käiku
konkreetsemalt
katkestati
kasse
ideoloogil@@
halva
enem@@
elude
avab
Kagu-@@
31
29
üksmeele
õiglased
vähendavad
vaidlusi
tsioonidest
tihedamat
suurimaid
suurendamisele
suuremal
suhtumise
strateegiliselt
sotsiaalsest
põhiliselt
päikese@@
puutuvad
poolsed
naine
lem@@
kusse
kinnitavad
inimõigustest
huvidest
hullem
fo@@
esimes@@
ennetamiseks
energiatõhus@@
elemen@@
arvukalt
alasse
agressiiv@@
Jo@@
ülevõt@@
ühine@@
väljenda@@
vaadatakse
uuendusi
tõhusate
tsin
teavitamise
suurenevad
sektorist
seisvate
rõõmusta@@
rängalt
puudused
pealin@@
palvega
pakkumine
ooda@@
nõuande@@
näitajaid
naka@@
muudatusettepanekus
meri
majandu@@
liial@@
laus@@
käitle@@
kuriteo
koostööga
koordineerimist
koolitust
kohtute
kku
kiideti
kides
kavatsevad
kasvavat
kasvavad
julge
ikat
ie@@
gusel
giks
emiseks
edasine
arengumaadele
antaks
akadeem@@
Tšaadi
Põhja-Aafrika
ET@@
Bus@@
Š@@
üritavad
üllatav
võrku@@
versiooni
valitsustele
ulise
uli
tööstusharu
tõlgendada
täiendav
tuvastada
tiivse
t-@@
riks
põllumajandus-
põhiseadus
pärineb
puhta@@
poliit@@
osutatud
ohustada
og@@
nõudes
näitajate
menetlusega
läheks
kohut
kida
ira@@
hel
erandite
energiatõhusus
elanud
elanikkon@@
dumise
asjadest
allikatest
aitas
T-@@
Kam@@
K
Gazas
85
26.
1,5
õõnestab
õnnitle@@
välissuhete
vastaks
vahelisel
uru@@
tõestada
trateegi@@
sö@@
sõnavabadus
suurendam@@
skeem@@
sisserändajad
raporti@@
puu-
pom@@
organi@@
mobiil@@
metal@@
merenduspoliitika
majandusse
maht
kümne@@
kümmend
kätte@@
kulub
kosmose@@
korraliku
konkreetsetele
koheselt
kke
kategooria
infot
hoiuste
harva
geen@@
eelarvam@@
dude
Liibü@@
võl@@
väljatöötamisel
vastastikkuse
säästev
struktuuride
sekkuma
regulaar@@
plaane
otstarbe@@
otsese
olemasole@@
nõudlust
nii-öelda
lähemalt
luseks
loodab
kolmes
kloonitud
kaubaveo@@
kasutuselevõtu
kahepoolsed
ito@@
iga-aasta@@
gune
fondi@@
fon@@
endal
emat
arvestatakse
aitame
2001
20-@@
195@@
&#91;
üritame
õiget
õidu@@
é
è@@
väljatöötamise
vabariigi
tuleneva
tsa@@
tidel
tahtsime
tagajärjeks
sisen@@
segi
pühendumuse
põhite@@
põhikirja
piraat@@
pidur@@
olemust
olemasolevat
mürg@@
muus@@
moodusta@@
liituda
liikmetega
laiemalt
kvaliteedi@@
koostas
konsen@@
konfliktid
kasutuselevõtmist
jagune@@
istliku
infla@@
huvidega
gete
funk@@
esinevad
enä@@
eelneva
ebatõhus@@
con@@
arendamisele
ajakohastada
38
õppinud
vet
vamaid
tõstmise
tulis@@
tulemusta@@
tit
teistega
taun@@
suurenem@@
stereotüü@@
seadusandja
ritele
protsessist
posti@@
peat@@
parimat
minuti
masta@@
kuulanud
kohase
kinnitatud
keskkon@@
järgivad
igasuguste
het@@
esindan
endil
aju@@
43
2005
ühita@@
veet@@
varjatud
vanad
usuvabaduse
tähtaja
turumajanduse
turismikomisjoni
tegelenud
süstemaatiliselt
sõltuvus
suveräänsuse
sissetulek
sisserändajaid
sate
raskuste
printsii@@
piirkondlikke
pandi
optimist@@
normaal@@
nendesse
mõjud
memorandu@@
manipule@@
lääne
läbirääkimistele
laiendatud
laevas@@
kohandatud
kasutuselevõt@@
kasutata
kahetsusväär@@
kaebuse
järjepidevalt
jälgimise
ir
ht@@
eraldamist
endist
elamu@@
eeskirjadele
edasipüüd@@
aksid
Tur@@
väiksemate
vähes@@
vähendamisega
vastavaid
valijas@@
valdkondadesse
vabade
tuuni
tusteta
tulevas@@
toimimis@@
tekstide
teerida
sümboli@@
surmanuhtlus
rü@@
raskustega
qu@@
piirdu@@
paljasta@@
osutab
naeru@@
muretsema
moraalne
mitmekeel@@
lahutamatu
kõikehõlmav
kolmandiku
kolmand@@
juhtidele
hindadega
finantsstabiilsuse
esindajana
erinevatel
elluviimisel
atuid
astanud
alne
ajaloolise
Hamasi
EN@@
Armeenia
üleminekut
üldis@@
ühise@@
õnnestu
õigustiku
võltsimise
võiksite
vastuollu
vastamisi
varjupaiga
töötajat
tõstatab
tuumarelva
tingimustest
tih@@
süsiniku@@
sõnavõ@@
suudaksime
semate
saatnud
rakendades
okupe@@
ohv@@
muudele
ming@@
lü@@
kõrgemad
kuulama
kolmel
kindlustatus
kergesti
kavan@@
katsed
kade
järeldustes
julgeolekule
juhin@@
inõu@@
hoolik@@
de-@@
arutati
artikli@@
aluslepingute
aktsepteeri@@
USAs
Malmström
Ashton@@
Arengu@@
29.
12.00
ülis@@
vähesed
vigas@@
vastavuses
valima
uimasti@@
töötingimuste
tähtsam@@
tuule@@
tusta@@
tulenev
truk@@
sõnavõttu
seis
põr@@
põhimõt@@
poolte
poliitilistest
pilt
piiriülene
maksumaksjad
maas@@
lad
kavats@@
jus@@
julgus@@
his@@
ettevõte@@
entidele
damises
auto
anide
anduses
ametiasu@@
aitaksid
Põllumajandus@@
Nagu
Herman
ülemäärase
õpe
õigustada
õiguskaitse@@
väljakutsete
väldi@@
vaatab
uline
töötajatel
tõhusam@@
tuginema
tta
toel
teenistuste
suhetele
stiimuleid
selgete
sek@@
püüdlused
pöörab
põhjus@@
punktiks
piirkondadesse
piiramise
partnerlus-
parandus@@
ombudsman@@
omandi
olust
mü@@
möödas
moodustada
maksmise
majanduste
kõrgetasemelise
kohtumistel
kavatsus
kantud
jagamine
hoiu@@
haigused
eris@@
eelarvele
ebas@@
austades
asjaolusid
arusaa@@
öeldut
väited
valmisolekut
valijate
usaldusväärset
tõstatanud
tekitas
tegelikud
tavasti
tarbimine
sümbool@@
seire
seadusega
regulaarselt
pü@@
puhu@@
protsesside
protsedu@@
piirkondadest
osaline
ohustatud
märkinud
mitmetes
lühike
loogi@@
liikmetel
kavatsust
kavatsetakse
kavale
kaubitse@@
kaalu
eurost
edasiste
bur@@
avalikus
aitamiseks
LV
ILO
Birmas
ACTA
võrgustike
vangide
vana@@
vabatahtlikult
tuntakse
teisipäeval
teatavates
susel
silmakirjalik@@
siga
seme
sarnaseid
rühmit@@
rahvusvähemuste
põhimõttel
pära@@
poliitikameet@@
pakume
olümpiamän@@
nõrge@@
nar@@
mb@@
lõppema
loobumise
linnu@@
kukkunud
kujundamisel
kehtestamisega
karjääri
karistusi
jäid
juris@@
juhin
juhatuse
itide
etapp
elluviimist
br@@
avan@@
arvamusega
araabia
Aasias
196@@
võitlusega
võimalustele
võimalusest
vili
vastasti@@
valuuta
vaimu
usin
toksi@@
teadv@@
tasandile
sed@@
reageerimis@@
otsus@@
omaette
nendeks
möön@@
mehi
kõnelusi
kvalifikatsioonide
kutel
kokkuvõtte
kinnipidam@@
keelustada
istungjärgul
iseloomu@@
ire
instrumen@@
iir@@
ideoloogi@@
hüvesid
eemale
edendam@@
asutustes
aeglaselt
Mer@@
Ühend@@
võimaldas
vastuvõtmisel
tänases
tingimus@@
the
teenust
taseme@@
süüd@@
sisalda
pidevat
obi@@
ned
mõistetakse
muljet
mega
maksed
maast
lubavad
loomingu@@
loo
leppe
lahkarvam@@
kusid
kt
konverentsi@@
kommerts@@
kiitma
kauba
kahepoolseid
euroalaga
asjaolu@@
alism
Vä@@
Nic@@
Mil@@
Londonis
Kalandus@@
Côte
1999.
üliõpilaste
ühisturu
ühenduse@@
õp@@
õigussüsteemi
õigusnormid
välise
väidetakse
vähenemist
tugevdamisele
tegutseme
seisun@@
rõhutatud
püüan
puidu
nägin
muga@@
minevi@@
madala@@
lükatud
konservatiivid
kohustusest
kku@@
kann@@
kahet@@
jäätmeid
jaotamise
hüvit@@
hol@@
gil
gia
erinevatest
endit
ebaproportsionaal@@
arenguid
al-@@
ainulaad@@
Euroop@@
Business
32
ümberasu@@
ühinema
viisavabaduse
vane
termin@@
spetsiif@@
soovitada
segadust
riigik@@
rakendam@@
püsima
puidu@@
programmist
pidu@@
pat@@
paratamatult
optima@@
ootusi
nimekirjas
meres
maksumaks@@
maine
liikmesriikide@@
laiemas
kontrolle
kodakondsuse
kliima-
kaug@@
kaotatud
kamaks
järeldusele
ikel
hinnatud
elan@@
ased
aruandeid
Sar@@
Mor@@
Genfi
44
väike-
väi@@
täpsustada
tänast
tulemustele
tom@@
terve@@
territoriaal@@
tari@@
takistuseks
tabas
sää@@
suses
soovitatud
sisserändepoliitika
siga@@
saadetakse
püsti@@
puhkuse
paan@@
organi
oodatakse
olul@@
ohutusega
näidatud
meetodi@@
madalam@@
lühe@@
liigse
lih@@
laialt
lahingu@@
kõrgetasemeline
kodu
kiri@@
kauplemine
kasutuselevõtt
kalandussektori
kahjustavad
julge@@
jaam@@
itsi@@
istani
informatsiooni
informa@@
ilus@@
gas
ettevõtjatel
esitaks
duvad
diktatuuri
atus
artikliga
Süüria
Olen
OS@@
Hu@@
42
3,@@
üksikud
ühinemiseks
Ülemkogul
vastuolu
varjupaika
vaiel@@
usesse
uk@@
tööri@@
tides
teabevahetuse
sõltumatu@@
suurendaks
soodustavad
selguse
riigina
rahvusvahelisest
püüdluste
püsiva
planeerimise
paluma
nimetas
naasta
läbivaatamisel
lubama
käsitleti
käsit@@
kuritegevusega
jätkusuutlikkus
järgitakse
jaamade
halven@@
eesistujariigile
diste
asjaom@@
arusaadav
argumente
ann@@
aksu@@
Norra
Meie
Demokraatliku
48
õpet
Ühendkuning@@
võimalustest
vused
viidatud
ulatuvad
tõendid
tähtsamad
tiivne
teadustegevuse
taju@@
summad
suhte
stan@@
saavutusi
rohu@@
rahvad
pen@@
pakkumist
oskused
nõustuvad
nõusolekut
niisugused
miljardeid
meeldi
maksusta@@
lip@@
lepingutest
kärpeid
kokkupõr@@
kojas
kogutud
kavaga
kasutusel
jõustu@@
jõul@@
erimises
energiaallikaid
elluviim@@
ekspluate@@
eesistujat
duma
duda
ator
ans@@
ainsa
aeg-ajalt
Mag@@
Lä@@
Jaapan
Bali
ülevõtmise
ühenda@@
õpi@@
võti
võis
vää@@
värb@@
väljakuulu@@
valve
tõstatas
turvalise@@
sõnastus
stabiilne
sotsiaalses
sisserän@@
rünnaku
rääkisid
raskel
prants@@
personali@@
ohusta@@
mis-
matusele
lähemal
lihtsam@@
leitakse
kõrvaldamise
kõrbes@@
kree@@
koostamiseks
koloni@@
kehtestades
jätkuda
investeerimist
iganes
hoiat@@
hasartmängu@@
elluviimine
ebaõnnestunud
atia
asunud
asepresidendi
aruandlus@@
anis
alternatiivi
Tu@@
Pärsia
Komisjon@@
Bor@@
Ashtoni
üksmeelselt
õiguskindluse
väikeseid
vähendamisel
valitsev
valdav
uuel
tohutud
tii@@
teeni@@
taimekaitsevahendite
sündmus@@
sõnas@@
sotsiaalsetele
sisalduvate
sellistest
selgitusi
sektoriga
sammude
saam@@
saagi
rõhutame
raskes
rahvusliku
rahas@@
põhiõigused
mootorsõidukite
makromajandusliku
läheme
läbirääkimistega
läbirääkim@@
küber@@
kukku@@
kritiseerida
kooskõlas@@
komitee@@
kalurid
iaga
heitmete
halduskoormust
haldamine
guste
esti
esmane
enema
edastamine
direktiivile
dataks
arengusse
Portug@@
Nice
Moldo@@
Minu
Hertsegovi@@
üksikasju
õige@@
võitlusele
väärtustest
valiti
vaga
vaatepunktist
vaadel@@
uurib
tööde
tulevastele
tihe
süü
säilitamist
selgitust
see@@
rumeen@@
reh@@
põu@@
pikkuse
omab
musele
lõpetamise
liikmetest
laiahaarde@@
kõneal@@
kohaks
kirjutatud
kirjaliku
kaitstes
kaasama
ituste
ilmnenud
hinnatõusu
heita
fondidest
endusi
edendavad
deli@@
dal
ch
allpool
Small
Rahva@@
Maastrichti
Act
33
00
ülekaal@@
ühtsete
õigusnor@@
äs@@
vastan
vase
valitsevat
ulatuslikult
tõm@@
täiskasvanu@@
turism
tempera@@
tavam
sotsiaal-@@
pluralismi
perekonna@@
peredele
parandusi
paranduseelarve
otsustamis@@
oloogil@@
nõuetega
lähed@@
loome@@
liigagi
lepiti
langus
kvalifika@@
konkureerida
kemikaalide
kaasparlamendiliikmed
jõua
juun@@
impordist
etud
ettevalmistamisel
eripära
enes
dad
az@@
avaldame
asjaolud
amises
IN@@
üksikasjaliku
õnne
väide
vähenda@@
viima@@
vaidle@@
uut@@
usaldus@@
tõstmine
toiduaineid
teenusepakku@@
tagasisaat@@
sõltumatute
sektorid
sektoreid
saar@@
realise@@
rans@@
rajane@@
rahastamisele
poliitiliseks
perspektiivi
otsu@@
operatsioonide
mõistlikud
mõistetud
masin@@
mahul@@
looks
kuue@@
kultuurilist
konservatiiv@@
kombel
kolmandik
kerg@@
keeldub
jõude
innovaati@@
haigus
ennetamine
eeskuju@@
eelised
eelarver@@
ebasoodsas
direktiivist
ca
autoritaar@@
andmisel
Põh@@
Arkti@@
&#93;
äge@@
võimalusega
väärtusega
väikest
vormid
visa@@
viide
vid
tänaseks
ttepane@@
tatavate
taganud
suurimad
suuremaks
struktuurid
stabiilsusele
sotsiaalkomisjoni
seisundit
seadu@@
ringhäälingu@@
põllumajandussektori
punktile
pingeid
osutub
laad@@
kuriteod
kunsti@@
koostamist
kolmandatele
kehtivat
inter@@
hiin@@
globaliseeru@@
fiskaal@@
energiale
eeldan
ametiühingu@@
Mere@@
Gi@@
49
võitluseks
võidel@@
viiside
vata
vaimse
tänapäe@@
tähtsal
tulemustega
tsioonil
tingimus
terviklik
teati@@
sünnituspuhkuse
suutlikkus
sulgemine
statud
registri
rahastamisega
pärinevad
piirkonda@@
otsustavat
nul@@
nimi
mitmesugused
meditsiini@@
mah@@
lusta@@
loomi
lisamist
küün@@
kõla@@
ksu
ksa@@
kiidetakse
järjekord@@
järgneva
järgneb
jalgpal@@
isiklik
imeet@@
iki
ha
get@@
ettevõtetest
ettepanekutest
eriks
eemaldada
avaldusega
atute
aruteluks
alused
X
Uus-@@
Pakistan@@
Jacques
Erasmus
Belgias
õhu
õbr@@
väärtusliku
vastumeel@@
variraportööri@@
usk
tärkava
sünn@@
spetsiifil@@
seaduslikud
risk
puhas@@
program@@
pankadele
oste@@
nes@@
neljand@@
mägi@@
mel
läbipaistvalt
loomakasva@@
lahkuma
küllaltki
küllalt
kättesaadavust
koorma@@
konkurentsivõimelisemaks
kevadel
kestab
keskset
kellelegi
kasutuselevõ@@
hääl@@
hing@@
haavatavam@@
esimesena
erisid
elanikke
eesistumisperioodi
davalt
arut@@
alkoholi@@
aastale
Vahemere@@
Madeira
Carlos
ühendused
vähene@@
varu
valdkonnale
tööand@@
tulevast
th
suhtuda
oste
olulis@@
loomisest
käinud
kvalifikatsiooni
keskkonnaga
kehte@@
homsel
halvem
hakka@@
garanti@@
energiatoot@@
eesistuj@@
ebakindlust
dasin
avatuse
ajanduse
agentuuride
Valgeven@@
Mu@@
Julgeoleku@@
GMO@@
Asu@@
võõ@@
vangla@@
uur@@
tänusõnad
tugevama
tiivide
tervishoiu-
telefon@@
tekstiga
suuruselt
surve@@
siduva
saab@@
rahvusvahel@@
püüdlema
ostavad
niisuguseid
muudest
meeleavalda@@
käsitlemiseks
kut@@
kultuuridevahelise
krediidireit@@
konnad
kommen@@
kaot@@
kandide@@
kaasnema
jõudmiseks
jätkuma
jätavad
istavad
hääletamisest
gusele
genotsiidi
geid
finantsturgudel
esimesi
elukvaliteedi
demokraatlikus
av@@
atorite
arengust
ametikohta@@
ajastu
USAga
Ra@@
Liidult
Fer@@
46
37
ühil@@
tööhõiv@@
toodavad
teore@@
tegutsemiseks
teenistu@@
teatist
tagasilöö@@
sündmus
sõjaväe
saatis
rongi@@
pööram@@
omaalgatus@@
olu
ok@@
märgi
masse
mandri
lugu@@
lisas
lihtsustab
lamba@@
laiali
käsile
konkurentsivõimele
kavatsu@@
kaalub
jõulise@@
järeldus
investeerimisfondide
inas
immig@@
igakülg@@
idee@@
heaolu@@
geograafilise
gemat
ettevalmistusi
energiatõhusu@@
Cotonou
Ameti
AC@@
600
üldised
z-@@
võist@@
vähendanud
voor@@
tõsis@@
tõhusamad
tulen
tegevu@@
sides
selgesõn@@
ränd@@
riikidelt
rajamise
raamatus
põlvkonda@@
pul@@
presidendiks
praktilise
periood@@
pag@@
negatiivseid
mõtte
märgise
lõhes@@
lahkuda
kujuta
konkurentsile
kohandu@@
kasutuselevõttu
kan
kaasatust
jõustumise
inimõiguste@@
igasugused
hiljemalt
erinevatele
ebakindluse
dumine
daga
allkirjastanud
Sim@@
Q@@
Fondist
äre@@
väljendan
vide
vastutustundliku
vastatav
vaieldamatult
töötasu
toodetakse
toetamisel
tihedas
tervishoidu
tervikliku
takistuste
soodustama
saare
ria
puhkust
platvormi
piirduda
paremale
paketist
osi
omavahendite
okupeeritud
mõjust
mesilaste
lisand@@
leevendamiseks
küsimu@@
külg
kõrvaldamine
kulutatakse
kujuneb
kuju
kordne
kontrol@@
kommentaar@@
kirjutada
keeldu
inspe@@
inflatsiooni
idi@@
eksiste@@
eesmärgist
arvukate
andsite
alustas
San@@
Robert
Rehn
Mic@@
Kosovo@@
Belgi@@
ühtlusta@@
võimalikul
võetavate
vastutustundetu
udi
töötamise
tulevased
tuhande@@
trüh@@
tehnoloogiad
tavaline
tamisse
sõnavõtjad
suurele
sisuga
seits@@
rühmi
renove@@
protsessi@@
popul@@
poola@@
mõttetu
miselt
ministeeri@@
lin
langevad
ktori
kommunistliku
kohaneda
kavandada
kalanduskomisjoni
investeerimise
halba
enko
eeldusel
bu
asutustel
ainet
advoka@@
Tim@@
Internet
Ho@@
Con@@
üleilmset
üksteisele
võimaldaksid
volin@@
vaesed
uuend@@
tulevasi
territoriaalset
taolise
tamas
säilitades
relvarahu
rangemad
rakendamisest
põhju@@
päritoluriigi
puudujää@@
puhan@@
port
poliitikal
objektiivselt
nam@@
muul
mais@@
mainin
maailmaturul
lõplikku
lõiget
läbipaistva
lisemaks
küm@@
kutsuma
ktor
kokkuleppes
kiri
karis@@
julgeolekus@@
imu@@
gen
duble@@
direktiivid
den@@
asjaoma@@
arvamus@@
ambitsioonika
aegade
Indias
Indi@@
ütle
äriühingu
vuses
viimine
viiks
viidi
vastuvõtmisele
vasakpoolsed
vahelisest
töösse
täite@@
territoriaalne
söe@@
suurtes
suunama
sobim@@
sajan@@
rääkisime
ravimid
puudujääk
plur@@
piirab
pel@@
pant@@
palusin
osalejad
omad
mõistes
mässu@@
märgiks
muutis
liigne
koostati
kitsen@@
kasvule
joogi@@
far@@
esmas@@
ebaaus@@
direktori
din@@
arvuti@@
ambitsioonikad
X@@
VKEsid
EG@@
Bah@@
üksuse
õnnetus
õigusaktiga
ÜRO@@
välispiiride
vastuoluline
valgu@@
vaesemate
uuendatud
tuhat
tiste
tervisega
taoline
sidemete
reser@@
reguleeriva
protektsionist@@
proovile
proov@@
pikalt
pereelu
nõudmine
mõnedele
mistega
liikunud
lak@@
kvaliteetsete
klausel
katta
kardavad
kannatama
kaebusi
jõulise
itsioon
isol@@
inimõigustele
inim-
hädavajalikud
hilin@@
fundamentaal@@
emisele
der
büro@@
autonoomia
arstiabi
arre@@
antav
allkirja
ajavahemikul
IMFi
öeldu@@
Õ@@
vältimise
välisma@@
vähendaks
vähemusi
veini@@
tõkkeid
tugine@@
tugevdatud
traditsiooniliste
tootmisele
tagakiusamise
stabiliseerida
silma@@
seost
sellisest
riigisiseste
riigi-
põhinevat
plaanid
pingutused
piiramine
parandamisel
otsustasid
ohutusele
neutraal@@
muudel
mon@@
meelevald@@
majandustegevuse
laiaulatuslik
kontsen@@
konstruktiivset
konkurentsivõimelise
kerge@@
jäeti
jaanuari
inimväärikuse
ilmne@@
ill@@
erile
enenud
emisega
eelis
edasimine@@
dale
avalduses
asjus
arrete@@
andi
aktsepteerida
agentuuri@@
Sel@@
Co@@
õppust
õnnetusi
õigeks
vahepeal@@
vabatahtlike
vaateid
töökohal
tunde@@
tootmisega
teenistused
taotlenud
suuremas
ss
sissetulekuga
saabub
põhjalikumalt
puudujäägi
punktides
perekondadele
parteide
osalus
oktoo@@
noortel
naabrite
moratooriumi
metega
mainet
luse@@
käesolevat
kutes
kontsep@@
kohalikku
kahtlen
juhtumiga
iseseisvust
innukalt
infos@@
hinn@@
füüsilise
finantstehingu@@
esindus@@
erakorralise
eksisteerivad
ef@@
eesmärk@@
diagnoosi@@
avameel@@
austuse
alustatud
allakirju@@
alide
absurdne
Volinik
Nor@@
Maria
Londoni
Jan@@
Innova@@
IC@@
EP@@
EL@@
David
ülim
ülesanne@@
üksmeelele
võlgade
vabaks
tänu@@
toimepani@@
teha@@
sõnavõttude
sta
ske@@
samaks
saatuse
rohelised
riigihangete
realistlikud
põhjustest
protsesse
pidamist
otsuses
osutavad
ooni
nan@@
mõn@@
laps
lahendamisele
koostab
klausli
kasulikuks
hete
halve@@
filosoo@@
esk@@
elda
direktiive
argument
Lõuna-Sudaani
Austrias
õiglus
veebisa@@
uuenduslike
uuendada
uueks
usam@@
tõenäoline
tähendus@@
tisi
tegurite
tegelevate
teab@@
taris@@
sõltumatut
staatust
sisserändega
sellisena
sarnast
rus@@
rollile
repressioon@@
ratifitseerimist
raskustest
peatüki
paket@@
osutamise
omast
olulistele
nõuetekoha@@
niiviisi
määratlus
majandamise
läbivaata@@
lubadust
lo
leidu@@
kokkupuu@@
kogusum@@
kirjeldada
kaubandusele
jõustunud
hullemaks
heakskiitmise
hankim@@
etniliste
elamistingim@@
eelarvepoliitika
edenem@@
detsentraliseeritud
ametissenimeta@@
ajakirjandusvabaduse
Wal@@
VKE@@
22.
üleskutse@@
ülene
üksikisiku
õigusaktidele
võimaluseks
väljavaade
vitada
valitsusjuhtide
vahetamise
ttevõte@@
transporti@@
telekommunikatsiooni
teavitama
sõpr@@
sõltuvuse
surmanuht@@
stabiilse
soovitav
ros
riskid
rakendu@@
põhili@@
pädev
praeg@@
plaanile
piirkonnaga
pig@@
pere
pead
partneritele
para@@
nõuetekohast
nõuan@@
noore@@
natsion@@
naise
mõistlikult
määratlema
muus
looduslike
lenud
lahk@@
küt@@
kõrgema
kõhkle@@
kär@@
käik
korrast
koordinaator@@
konteksti
kae@@
jättis
järeleand@@
iz@@
fääri
elat@@
eelarvepuudujäägi
bas
arenguriikides
Rapor@@
Kreekale
Island
Investeerimis@@
Internetti
Föder@@
Cam@@
õigeaegne
võrdseid
varustamise
vaatenur@@
tunnet
tulenevat
tugevaid
teostama
tagatiste
sõnavõtt
suht@@
soovisin
seisev
seel@@
puudujääke
prantsuse
poliitilistes
märkima
muutustega
mittediskrimineerimise
meeldiv
meedias
lepingutele
leidmine
kõrgel
kõikidesse
kuulutada
konkurentsipoliitika
kaubandusest
jätame
juhtiv
innu@@
eel
diplomaatia
astub
aruteludel
arukas
aluste
aliik@@
ainsaks
Tar@@
Põhj@@
Je@@
Guinea
EU@@
700
39
27@@
2003
120
.00
üheselt
õigusaktidest
õigusakti@@
vastavusse
uliste
tööstusharu@@
tähtaega@@
tusteks
tuselt
tulust
toimiks
tervisliku
tegutsemine
teadusuuringutesse
tarnete
tamaks
sõnaga
suutis
sunni@@
sisaldub
sinud
seri@@
selja
pädevate
pingutuste
narüh@@
mured
mora@@
minagi
mes
lõuna
kõrvaldamiseks
kõlb@@
kusagil
koli@@
kohaldamisel
klassi@@
kindlaksmäär@@
kiidu@@
kestev
keskkonnapoliitika
keerulises
kannat@@
kahjulike
kahepoolse
julges@@
istus
idid
hoolega
homoseksuaal@@
ebapiisa@@
autotööstus
absoluut@@
Venezuela
Pro@@
Nõukogu@@
Kasah@@
ülestõ@@
üleskutsega
üksmeelt
õigusalase
võlgu
võlg
väljendatakse
väljakutse@@
vähenem@@
viivitamatut
vastuvõetavad
vanu@@
vanku@@
tutvustada
teavitatud
suurepäraselt
sotsiaalkaitse
singi
siduvaid
reageerinud
põgene@@
puutumatust
ppe@@
piiran@@
parlamendist
pake@@
omisjon
maagaasi
logisti@@
lobitöö@@
kredi@@
koordineerimine
kogumist
kindlustamiseks
kaua@@
karm
kaitsmisele
jõuks
juhtuks
institutsioonidel
inal
ikuga
ige
hävitab
huvitab
hiljutiste
guses
foorum
faš@@
ettepanekutes
etnilise
enevad
elektrijaam@@
ebakindlus
asjadega
asj@@
artik@@
ammen@@
ades
Lõuna-Kaukaasia
Kir@@
Ge@@
99
viitavad
vastan@@
varju
usalda@@
täielikus
tähenduses
tugevdatakse
tsiooni-
süven@@
sätte
seisund
sarnan@@
ränne
referendum
rahuprotsessi
põllumajandusliku
preemia
pim@@
oposi@@
olemuse
maksimaalse
maailmast
lihtsa@@
legi
küsimus@@
kärbi@@
kuulam@@
kriteeriu@@
koormus
konkreetses
kiireid
kasvam@@
kasutas
jõustada
jätkus
järgnevad
istungi@@
iseenda
imatele
ilo@@
häbi
huk@@
haru@@
hallata
haigus@@
emo@@
eksisteeri@@
eelarves@@
ble@@
avaldamist
austab
armee
aktide
aeglus@@
Solana
Organisa@@
On
Nobeli
No@@
Jean
Frattini
Bro@@
w
viimise
vere@@
vedu@@
vastuväiteid
tööelu
tõeliseks
tunnistanud
tugevdades
trans@@
ting@@
tiheda
tervishoius
tehtavaid
teenistuses
teenindus@@
teades
sõlminud
silist
selgu@@
sekun@@
salaj@@
rikuvad
põhik@@
praktilist
pooldavad
partneri
otsivad
optime@@
oot@@
ohtliku
negatiivsed
mõte@@
met
meetri
lubadus@@
laua
langust
laiendamise
küp@@
kuulus
kutest
korrapär@@
kohtusse
kliimamuutusi
keelustamise
kasutajatele
kasid
kahtlusta@@
itada
istan@@
isikut
infrastruktuuride
igaühe
fik@@
eraldiseis@@
autosid
arvate
areneb
Pet@@
M
Hiinat
Floren@@
ütlematagi
ühepoolselt
äriühingud
tür@@
tööstuse@@
töölis@@
tuure
tundliku
tugevamat
tagakiusam@@
sektori@@
sattuda
sada
saavutab
saadaval
ressi
programmidele
portfel@@
parandavad
obje@@
nähtuse
null@@
lähtuda
litsen@@
lisanud
laiema
külge
kärpida
kvaliteedile
kurjategijate
kordse
kele
kasvuhoone@@
kart@@
kalala@@
kaasatakse
järgus
istan
hääletades
gustele
go
euroskepti@@
erakonna
emade
andusele
aki
Kreekat
Jaapanis
Iirimaale
2002
ühtsus
ühinen
üheks@@
õigusesse
vastas
vanglas
vamat
traagi@@
televisioon@@
teataval
suudetud
sused
sidususe
setesse
rühmadele
rahule
rahastamisvahend
puudulik
pingutama
pinge@@
organisatsioonides
onia
omavalitsus@@
olulistes
ohutud
nõudmist
neisse
mõnedel
muutuse
meeldiks
majandusaasta
mainisid
maades
lisaksin
kulukas
korraldab
koostöölepingu
komitees
kodusõ@@
keelduda
kajastub
juurdepääse@@
jon@@
elased
edastamise
avalikkus
anias
aliseerunud
Türkmen@@
Prantsusmaad
Ol@@
IF@@
üksikasjal@@
öeldu
väljendasid
vim@@
valmistavad
vaktsi@@
vaim
usaldada
tööhõives@@
tõve
tõusevad
tuumaelektrijaama
turismik@@
toiduabi
tasude
tagasisaatmise
sündinud
suurus
sule@@
seonduvaid
saamine
reedel
ratifitseerida
pol@@
piinamise
parlamendiliikmetel
paikne@@
nimega
naissoost
mõt@@
määratluse
manni
lisemad
käsitlusviisi
kvalifikatsiooniga
kuritegevus
kohtuda
kohest
kogemustest
kindlustuse
keerulisem
kasutust
kampaaniaid
kaasnevaid
iri@@
hääletamast
hetke
faktid
eriva
erandid
endused
ekstremis@@
dollari
demokra@@
avaldamise
arutluse
Nord
Mario
Kanad@@
B7-0@@
Aserbaidža@@
ülemaailmsete
vägivallaga
valimisringkonnas
tööjõudu
tõstmiseks
tänulikud
tuleva@@
tuaal@@
tte
tsivilisatsiooni
tohin
toetamisele
tale
sõjalist
suveräänsust
statistikat
samasuguse
rõõmuga
rõhutades
regiooni
raskemaks
raskeid
raketi@@
rahumeelse
põhiste
pääsu
päevaga
pädevad
prostitu@@
paranemist
palestiinlaste
paika@@
ot
naistest
naiiv@@
märgistuse
mälesta@@
milli@@
makstud
lõpul
lõpetamine
lähtuma
liitunud
laiaulatusliku
kuuluma
kused
korruptsioon
korrale
kohustuslikud
kohalik
kogukonnad
kipu@@
kaob
jõustumine
jooks@@
institutsioonilise
inimkaubandus
hävitus@@
hoolitsema
fun@@
elaniku
ebastabiilsuse
dž@@
co@@
alternatiivseid
ajakirj@@
N
Hiinast
Gaddafi
GSP
EF@@
öel@@
õli
vastutava
vastuses
vastavat
täiuslik
täiendab
tustesse
tunnustab
toni
tehniliselt
tehkem
tavamaks
tagaksid
taastumise
sünergi@@
selliseks
riiklikest
rahasum@@
rahastamisvahendite
püsiv
pande@@
näivad
nik
mõõde@@
muudatust
musta
moodus@@
militarise@@
meeldi@@
mar
manda@@
majanduspartnerluslepingute
majanduslikele
lüüa
lisema
liidule
ligipääs
liberaliseerimist
liberaalide
lask@@
lammaste
lahenda@@
kultuur@@
kontrolliga
konkurentsivõimeline
kommunismi
kohutava
kohanemis@@
kinnipidamine
kiidame
ken@@
keeruliste
katseid
juriidilise
jagamist
imat
edusammu@@
edastatud
dog@@
bert
avaldus@@
atsioon
assotsieerimis@@
aladele
ahelas
aamisti@@
Rootsi@@
Doyle
Del@@
Bas@@
üritada
üksinda
väärtustel
väljatöötamiseks
välispoliitikat
viibivad
vastutustundlik
vabastatud
vabandan
tööle@@
töökoh@@
tõestatud
täitmata
tuberkuloo@@
transiidi@@
terviseal@@
tekstid
tekitav
teatav
tatav
saks@@
sadade
saatus
saas@@
saaduste
rääg@@
reguleerimiseks
pommi@@
patsiendi
paha@@
negatiiv@@
miljon
läbirääki@@
liikmesriikidesse
leppisime
lennuliikluse
laseks
käigu
kodanikualgatuse
kinnipeeta@@
killus@@
kasuliku
kampaaniat
juriid@@
isu
investeeringutele
haru
haldamist
eurosid
ettevaatlikult
endusega
eesmärg@@
edusammudest
dit@@
co
beri
arvukaid
alustame
algatusel
ak
Liibanoni
Frontex@@
Au@@
-l
ži
ümb@@
ülemäär@@
üldisele
ühtsel
võlga@@
väärtpaberi@@
viivitusi
viimases
veise@@
vaidlus
vahet@@
vaesusest
vaade@@
uurimis-
tähtsas
tähtajad
tuum@@
tuletis@@
tulen@@
teravilja@@
teline
stis
sobi
silmakirj@@
regioonis
raportites
rahali@@
raamdirektiivi
potentsiaalselt
pooleli
piiriüleseid
our@@
osta@@
olemus
od
net@@
misesse
lõpetanud
lubaduse
kommunika@@
kohaldata
kiireks
kih@@
kid
kesksel
kaubaveo
jõuline
istama
imaks
hõivatud
haldus-
esitamiseks
energiaturu
elukvaliteeti
ebapiisavad
det
desarme@@
atmos@@
assamble@@
arutamine
antibiootiku@@
ajastul
Tür@@
Põhja-Aafrikas
õitsen@@
õigeid
välisminister
vähktõ@@
vool@@
vastupidi@@
varjupaigasüsteemi
vaatavad
usa@@
tööl
töökohta@@
tõde@@
tähtsusest
tuletama
tehingud
tegite
teatamata
sisenemise
salves@@
rõiva@@
riigiasutuste
ret
reisi
pöörduma
praeguseid
piirikontrolli
pensioni
paindlikumaks
nõudmistele
märki
muljeta@@
mitmeaasta@@
miljonist
läbimur@@
käsitlevale
käsitlemise
kuulen
koorem
kontrollib
kokkuvõte
kilomeetri
kavatsused
kaevandus@@
istungjär@@
ikaua
ideaalne
hoiatus@@
ettevõtet
ela
eeldatavasti
edastatakse
del@@
ban@@
avamise
avaldati
assotsiatsiooni@@
analüüsima
ameerik@@
ainulaadne
Tehnoloogiainstitu@@
L
üleeuroopaliste
volinikult
vastutavate
vabadusega
turulepääsu
toimimiseks
toh@@
tegemata
teema@@
tagajärgedest
suureneva
solidaarsusest
sisaldas
sihtasu@@
signa@@
rohe@@
risti@@
režiimide
ree@@
rassismi
rangete
presid@@
poolthää@@
osalisi
omandada
ohver
lubati
lootus
laienenud
laialdase
kõrgele
käsitlemisel
kosmo@@
kontrollitud
konto@@
konnale
konfiske@@
kompromissiga
kollektiivse
kokkuvarise@@
koalitsioon@@
kiirendama
kiireloomu@@
kato@@
karistus
kaotama
kall@@
kaaskodanike
kaalutle@@
järgmisi
juuli
iirlased
idust
hüve@@
hoiavad
haigusi
fe@@
eurooplasi
ettekäändel
esimehe
eriliselt
erandi@@
erakond
barbaar@@
arutellu
allikaks
alistel
absurd@@
abikaas@@
Mat@@
Goldstone
ET
õhk@@
väsi@@
vähktõve
vähene
vastupidist
vangis
valdkond@@
umid
tõdeda
tol
tekstiiltoodete
teenustega
tapa@@
seeritud
pööranud
preemi@@
piiramiseks
pii@@
osalu@@
ohtlikke
mand@@
majandusest
mahasuru@@
lõpphääletusel
lubadused
lini
leidmise
käsitledes
kuule@@
krediidi
jälgimist
jaanu@@
ilu@@
esmajoones
esirinnas
elavne@@
eeldame
digitaalse
demonstra@@
astus@@
anõu@@
aliku@@
aastaaruande
WTO@@
Madalmaade
Kriminaal@@
Her@@
Go@@
51
2015
üritanud
üleilmastu@@
ühisel
ão
volinikul
viimist
viha
vea
varja@@
variraportöörina
valu@@
ulatuslikud
täidetakse
tähtsale
tähtaega
tunduvad
tulemusliku
tsiooniks
tingi@@
tehtaks
tarnim@@
tab@@
sõna-
stest
saarel
saaksite
pinna@@
pile@@
otstar@@
osapool@@
olevas
muutmisega
maksustamis@@
lugenud
lu
loode@@
liks
käituma
kvar@@
kuupäeva
kooseksis@@
ko
kliimapoliitika
karmid
jõulu@@
itingim@@
ilide
i-@@
finantsturu
euroalasse
enamusega
asetada
ametid
alikus
alik@@
adekvaat@@
Vahe@@
Ukrainaga
Tööorganisatsiooni
Ger@@
ülemmäära
üksikasjalikku
võlgne@@
väärikuse
viir@@
veere@@
valikute
töötingimused
töötades
tõmmata
tulumaksu@@
süsiniku
sõnastada
sätetega
suurenev
samavõrd
resõiduohutuse
relvi
regioonide
rantide
rahastama
põhilised
päevas
pikendamine
perspektiiv@@
otsustega
ord@@
olümpiamängude
oleksite
mulla
mitmepoolse
mitmekülg@@
mitmekesisu@@
mandril
lisse
lasena
lahendatakse
laevad
kohtusin
kasvuga
kalu@@
kalapüük
kaheks
inimsuse@@
info
gede
diskrimineerimisega
bioloogilist
biogaasi
autod
austus
asid
ajavahem@@
ajakirjanduse
aastad
Türgile
IS@@
Demokra@@
800
1000
üksused
välistada
vastatud
vaidluse
vahetamist
unustanud
une
tõstetakse
troop@@
survele
struktuure
sertifitse@@
semin@@
selgitab
sektorisse
seaduslikku
rahvastikust
progressi
piisavaid
parlamentaarne
pais@@
ov@@
müüri
märgu@@
muude@@
mono@@
majanduskriisiga
maja
mainima
lükatakse
loovu@@
lihtsa
lahkunud
küsis
küllal@@
kõhk@@
käitumis@@
kulutatud
korraldust
kohaldam@@
kannatavate
inide
iast
hävitamise
heas
eurovõla@@
esimesest
enneole@@
emini
edastama
dokumendiga
delikaat@@
arvatakse
arengukomisjoni
Tuneesi@@
Rom@@
Ombudsmani
OLAFi
Mauritaania
Berliini
üldisemalt
õnnetused
ärri@@
võtate
vältimatult
väljarän@@
väit@@
vaidl@@
vabatahtlikku
täpsed
täie
tulemusega
transpordiliikide
teostatav
teadmis@@
takista
sõltumatult
soojenem@@
sektoritele
ranna@@
rajatiste
rajamine
positiivsete
pildi
peasekretär
paradoksaal@@
pankrotti
paar@@
otsustati
osalevate
online-@@
nõuti
märganud
meestele
mahus
madele
lämma@@
lugesin
lennuettevõtjad
laeku@@
küsis@@
kõneluste
kutega
kapitalismi
kabotaa@@
ish@@
integreerida
ingim@@
ikau@@
idanaab@@
hakkaks
gusid
gemalt
ettekäändena
eranditult
energiasõltu@@
enduste
eda
ebaseaduslikke
ebameeldi@@
dumpingu@@
disain@@
ben@@
alterna@@
allikad
algatusele
aktivis@@
Swoboda
Pekingi
Pariisi
Kaukaasia
FRONT@@
CIT@@
Aserbaidžaani
47
ā@@
ütlesime
üldsegi
äriüh@@
ya
väärtustega
vabadused
tük@@
teri
tahtis
summade
sool@@
räägite
reklaam
regionaalarengukomisjoni
reaalsuseks
põhjustasid
pole@@
pita@@
petitsiooni
peadirektoraadi
otsas
oodi
ood@@
omisj@@
nau@@
muudame
mei@@
läbipaistvus@@
lause
kvoodid
kun@@
kolmandad
kle@@
kirjutas
kinnitama
keerukas
karistuse
kahjustaks
jätkusuutlikkust
jms
itud
istungite
elanikkonnale
edusamm
dumist
dased
aspektist
ametis@@
Saksam@@
John
Investeerimispank
Du@@
B6-0@@
Ame@@
AR@@
27.
&apos;ile
ühtekuuluvuspoliitikat
õigusaktidesse
õhku
võrdsetel
võit
visiooni
veebileh@@
varustada
valgust
uurime
ut@@
tööks
tõeliste
tähistame
transpordik@@
tike
tervisekontrolli
tegelemisel
teaduslike
tavapär@@
taotlusi
tandar@@
taan@@
strateegilised
sidus
sedasama
sea
saj@@
sab@@
rahulole@@
pühendumise
poolsetes
piraatluse
piirkondadega
parlamendikomisjon
otseses
nikud
mõistmine
mainita
maa-@@
lükkama
loomakasvatus@@
lapsepõl@@
köögivilja@@
kro@@
korralik
kompleks@@
kodumaale
isal@@
ines
hääletavad
här@@
gut
esineda
enti
ente
elundidoonor@@
dokumentides
davaks
chi
avaliku@@
arvesse@@
are
ametiüh@@
alikul
abistada
abinõusid
Tervise@@
Tajani
Streami
Palesti@@
Leh@@
Kaubandusorganisa@@
Hau@@
Fukushima
Bre@@
-lt
üleseh@@
õiglust
võimule
väitis
vir@@
viisanõu@@
viga@@
vesivilj@@
usime
tulus@@
tsion@@
toodangust
teise@@
taeva
süsteemidele
säär@@
spekulatiiv@@
son
sellis@@
saade@@
reeg@@
ranni@@
rangemaid
pöördepun@@
psühholoogil@@
provoka@@
parandatud
ord
omanike
mõtted
mõistetavalt
mulla@@
missioonide
mig@@
materjal@@
lähetamise
lisab
likku@@
lemmik@@
käituda
kvoote
kuritar@@
kulukohustuste
kultuuripär@@
korralikku
koolist
konkurentsiga
kohel@@
keskkonnasõbraliku@@
kehtinud
kasutatavad
kapitalist@@
jätkamist
heakskiidu@@
este
erumise
elust
elatusta@@
ebaseaduslikud
data
büroo
avald@@
atiiv@@
ammu@@
alises
ainsad
Mitchel@@
Malaisi@@
Hääle@@
Costa
Be@@
Ameerik@@
AIDSi
ł@@
ülevaata@@
õigusraamistiku
õhuruumi
võimaldatakse
vilj@@
veebruari
vastusena
valitsusvälised
ustame
usk@@
tugevdavad
tet
teineteist
tehnika
tegelikkuseks
tasustatud
tasa@@
taoliste
taastamine
sä@@
strateegil@@
soovitatav
rollist
rikas@@
resisten@@
reserva@@
reaalse
raskes@@
rann@@
püsib
põhise@@
pärit@@
päevad
prioriteetidest
pilgu@@
pensionäri@@
otstarbel@@
olulistel
of
negatiivsete
mõrva
mõistlikku
muun@@
metsi@@
lõhet
linnad
liiklusohutuse
lennujaama
laialdane
käsitle
kultuuriline
krediid@@
konkur@@
katab
kaotas
kakskümmend
jõh@@
jälgimiseks
isel@@
hääli
homo@@
gaasijuhtme
eristada
energiaallikatest
emalt
eliste
eelarvekontrollik@@
devaheline
armasta@@
arengumaad
aegu
Nicolas
Ees@@
Atlandi-ülese
98
šo@@
ühistele
õppetund
õigusraamistik
ß@@
võitleb
vähemused
vusi
venel@@
vead
varustuskindluse
täpse
tähendus
tuletab
toetusest
tiibet@@
tekstiil@@
tegelikku@@
sõltuvalt
suhelda
sotsiaalkindlustuse
satuvad
saavutused
saastekvoo@@
saare@@
rol@@
rohelist
riskim@@
riigihanke@@
püstitatud
päevaks
piirideta
piiridest
pakuks
otstarbel
osaistungjärgul
mehe
liikumiseks
lennujaamades
lar@@
korraldamine
koordina@@
koguprodu@@
kinnitati
kindlal
kehas@@
keelatakse
kaubandu@@
kasvatuse
kaovad
kaitsjate
jõustamise
istungit
instrument
instrumendi
ikule
ike@@
häälteenam@@
hoidmise
haruldaste
haaval
gat@@
esimeest
erunud
elementaar@@
eksis@@
eest@@
avatust
astume
amaks
alistest
ale@@
Vabariiki
Ris@@
Kui
Iisraeliga
Anna
54
ülek@@
ökoloogi@@
õõnestada
õõ@@
vani
vaadakem
tööprogrammi
tõid
täpset
tsooni
teeksime
sõrmejälgede
sõidukid
suurest
samasugused
samasu@@
raskustesse
ps@@
proteste@@
pakutavate
osales
näidates
naaberriikides
mujale
mesi@@
meeli@@
läheneda
kõnet
kse@@
kohtun@@
keskkonnaalaste
keskendudes
karmi
kaotamiseks
kaotame
kahjude
järgmisele
järeleandmisi
isiklikku
hartas
halvim@@
gusse
gal@@
ettevõtlust
esindada
energiaal@@
enam-vähem
ehitamise
egiidi
dilt
asjast
arvamusele
ang@@
algus@@
Zimbabwes
Som@@
Arengu
83
41
üldises
ühisettepane@@
õiguspäras@@
we@@
võimul
vahelistes
uuringut
ule
täiendavalt
tuumaohutuse
tses
tervishoiuteenuseid
teistelt
tehtavad
sõltuvaks
strateegilisi
stani
standardim@@
soovist
septemb@@
rikas
referendumit
raskeks
onile
nähtub
nute
mõjule
märkim@@
muredele
multi@@
korraldas
kolmandikku
kokkuleppest
kasutatava
jäätmed
julgustav
juhata@@
jagama
isti
ger
fundamentalis@@
fakte
ettevõtetega
ettepaneku@@
bel@@
arvamuses
areng@@
aksime
aastakümne@@
We@@
Iiri@@
EI@@
ümberasustatud
ühendama
õnnetus@@
õhuruu@@
äär
võlakirjade
väiteid
vastuhääle
tuleme
tulemast
ttevõtted
tsük@@
tsite
toetusel
terrorismivastases
telise
teemadega
teadustöö
teadlikult
taastamis@@
sõjal@@
sättumuse
suudaksid
stre@@
sport
soni
sektoril
samalaad@@
riigipeade
rata@@
põhisea@@
privilee@@
peales@@
osaga
nõrgad
nuti@@
mõõta
muudatusettepanekule
monopoli@@
miljoni@@
lühiettekanne
lasest
kvaliteetne
kuulutatud
kriise
korraldatakse
koostatakse
koondam@@
konkurentsivõimel@@
kompensa@@
komiteemenetluse
kombina@@
kohtuga
killusta@@
keskused
kahel@@
järjekorras
järgmises
investeering
ilistel
igasugust
igast
esimehena
ekspluateerimise
eelarvemenet@@
eelarveaasta
deklare@@
avane@@
aprilli
andmebaasi
algat@@
San
Pakistan
OECD
Mc@@
Konserva@@
ESi
ži@@
ütleks
ülesehitus@@
ülemaailmses
õhus
äära@@
ään@@
võrgud
vähemus
viisiks
valitsu@@
vahest
vahend@@
usuliste
uskumatu
tööandjad
tunnistame
tekkimist
teistsugust
teadmata
taotleb
tahke
tagasivõtule@@
tagant@@
suurepärased
struktureeritud
stressitesti@@
siseselt
seadmed
saarte
saamas
rahvaga
pöörates
proovikivi
onis
nas@@
müüakse
mõistet
muudatustega
milleni
maksuparadiiside
majanduslangus
maailmasõja
lühike@@
külgi
käivi@@
kvaliteetseid
kurssi
ktiks
konventsioonis
konstruktiivne
kompromisse
kolmepool@@
kit
kaaluks
jõuga
järgnev
järginud
juhtumitest
jaemüü@@
iseta
iseloomuga
hirm
finantseerimis@@
esitades
enev
energiaallikad
eksplua@@
diplomaatilise
deklaratsioonis
defin@@
arvukad
arvel
arutelusse
ametivõime
abikõlb@@
Tiibetis
Mo@@
Lukašenka
Hollandis
Guy
Gra@@
Egip@@
CA@@
vatelt
varj@@
valimisring@@
vabale
töötute
tööhõivepoliitika
tulemuslikkuse
ton
temast
teemast
sobivaid
sioon
ruum
register
projektidega
privaat@@
pilgu
patendi
parlamendiliikme@@
nälga
näita
napp@@
mõisteti
minevikku
meenutab
mandaat
lükanud
lähtub
liigselt
külma
konsultatsioonide
konkreetsele
kolon@@
kodanikuühiskond
kirjeldas
keemi@@
kaasotsustamismenetluse
jõudsid
järjesti@@
isektori
int@@
ilis
identiteeti
idan
huvitava
endiks
elavhõbe@@
ehitiste
avaldaks
atorid
ant
agres@@
administratiiv@@
aadi
Verheugen
Reding
Madri@@
Komitee
Kol@@
Jan
Hiinale
Cecilia
Bow@@
-I@@
üksikasjalik
üheski
õidukite
Ülemkogu@@
võtsin
valm@@
valg@@
vabastamise
usulise
täiustatud
trü@@
traagiline
toorium
toiduain@@
tempo@@
tekitaks
tekita
sööda
sõnaselgelt
sunnitakse
sport@@
seksuaal-
seadis
riiklikes
represse@@
rajan@@
raamistikuga
püüelda
piisavate
pealt@@
osalesin
naabritega
materjali@@
läbivaadatud
luu@@
külastada
konsulaar@@
keskkonnastandar@@
keerulisi
kauplemis@@
kaugelt
kaubad
kaalutlus@@
iseseisvalt
ini@@
identifitse@@
hästi@@
heakskiitmine
halvad
ged
finantskriisist
etni@@
asjaomaseid
argumendid
arg@@
arengud
andmisest
andja
ametlike
abielu@@
SWIF@@
OLAF
NATO@@
Lehne
Ki@@
IM@@
Coelho
C7-0@@
2009@@
Šotimaa
ün@@
ühtekuulu@@
võrdõigus@@
väljastamise
välispoliitikas
vedude
vallan@@
valitsenud
vabadusest
töödeldud
tustelt
tulevases
tugevdamisel
teistsuguse
tei@@
tehke
teaduslikud
teadnud
tatava
süüdistatakse
söe
sissetulekute
siduvate
selgem
seitsmes
seisne
sarnase
saavutas
saadakse
rõhutati
rollis
reformimise
raisata
püsti
presidend@@
praktilised
parlamendiliikmetega
parlamend@@
paraneb
otstarbeks
otsetoetuste
näe@@
novem@@
narko@@
määratletakse
muutu
minimaalse
lõppees@@
listes
leidsid
laevateh@@
laeva
käed
korraldamist
kontseptsioon
konservatiivide
kogemust
kivisö@@
kerkib
jo@@
ja-@@
igis
his
eraldama
enetluse
emotsionaal@@
ehitatud
eelmiste
ebamuga@@
destabilise@@
bru@@
asjaomane
ametiasutustele
aluse@@
alal@@
aegse
aaste
Saudi
Kriminaalkohtu
Eurojusti
Almunia
96
õiguskaitse
vabastamine
uhkust
tõlgen@@
tundide
tsed
toetasime
tise
sõi@@
standardi@@
sidusrühmadega
seadmine
rest@@
referendumil
reageer@@
rahvahääletuse
raamatut
puudujäägid
prokurö@@
peasekretäri
nõudmiste
nurgakivi
nile
minimaalne
miljard
meediase@@
majanduslikel
maavärina
lühiajalise
loovuse
kõnelused
käsu@@
kutsuvad
kutsutud
kordama
koordineeri@@
kong@@
kompli@@
kommentaare
kohtumisi
kohaldatud
koguse
kindlusega
keskenduvad
kehtestamisel
itis
isusega
inimelu
iki@@
hävitamine
hoone@@
hoolekande@@
fitse@@
finantskriisiga
finantsi@@
etust
eelistanud
eelarveri@@
eelarvedistsipliini
demograafiliste
alustamiseks
alternatiive
aktsiis@@
aastasse
Toidu-
Sooviksin
PP@@
Gaz@@
Cancúnis
ühed
Üle@@
vii
varajase
uuenduslikke
tänavatel
täielikuks
tervele
tekiks
tahtlikult
suhtuma
siinse
signaal
reguleerima
reegel
rajaneb
praegu@@
pidamiseks
peamistest
ooke@@
nurgaki@@
noo@@
nimetanud
mün@@
misena
mber
loot@@
lobitöö
lobistide
lina
liiduga
lahtisi@@
kummaline
kriitiliselt
kompense@@
kohustusega
kindlustab
kilomeet@@
kestva
kapitalis@@
ka-@@
juhus@@
investeer@@
internetis
instrumente
ignoreerida
hoolduse
harjunud
erik@@
endite
elusti@@
eelarved
edukat
demograafilise
dementsuse
avaldu@@
auditi
atesse
annaksid
ametiasutustega
alahinnata
abinõud
Su@@
Slovakki@@
Maailmapanga
G
4,@@
2-@@
üksus
üksikasjaliku@@
võtmata
võte@@
väljendus
vangid
vald@@
vahistamismääruse
terroristid
tegeletakse
sõjavägi
sunnivad
strömi
saavutuste
ry
reageerimiseks
projektidesse
pres@@
pestitsi@@
osavõt@@
opositsioon
omi@@
omavad
nädalate
märgistamine
mistes
missugune
mahu
lisandub
ligipääse@@
kõikehõlmavat
kolleegidel
kohalikel
kitsas@@
kinnipidamist
keerulist
kahtle
kaasas
jõuaks
jätkusuutlikule
jurisdik@@
juriidi@@
juhtis@@
inimesel
import
igapäevaelu
heale
hakkas
erapooletu
eneda
emikus
avamist
asa@@
arvestab
antavat
alustamist
alist@@
abordi
aafri@@
Põhiõiguste
Lukaš@@
Ida-Euroopas
G8
Cancúni
ASEANi
52
ń@@
üsteemis
ühisarutelu
ühinemisläbirääkimiste
ühinemise@@
Ülemkogus
võrku
võimalik@@
väheste
vastuvõetamatud
vastavust
vaimu@@
vadki
uju@@
tõstnud
tõsisem
tänama
tutvuda
tulevikust
toitumise
tervishoiuteenustele
tegutsedes
teerib
taotlus@@
süvendada
suurtest
seksuaalne
seadusandlik
saaste
saadame
roma
reisijaid
reageerimist
rajaneva
rahvusvahelistest
püüdlus@@
põhiküsimus
puuri@@
protseduuri@@
praegustes
positiivseks
piiramist
pensionisüsteemide
oska
ool@@
olemise
olemasolevatele
nähtavasti
nu
mõnest
märgis
mars@@
maksmist
majanduslangu@@
madalam
lisati
lihtsustamiseks
ktist
koja
kohapeal@@
kasutatav
karjää@@
kahjusid
jätkam@@
jae@@
jaama
istuste
istusi
institutsiooniline
hüü@@
hukkamõistu
hukkamõist@@
hariduses
ham@@
guseid
finantsasutuste
esindatus
enamikul
enamgi
eesistujale
audiit@@
asutada
andsime
Põhja-Iirimaal
Oomen-Ruij@@
Haagi
Eurostati
Ban@@
Alba@@
Abhaasia
äbirääkim@@
võtke
välistegevuse
väiksemaid
vägista@@
vasakpoolsete
varakult
vanema@@
vajamine@@
vaate@@
uro@@
une@@
tubli
tooraine
til@@
teostab
telekommunikatsiooni@@
teisedki
teguriks
taandu@@
südame@@
soovitas
solva@@
sisevee@@
siseturule
seonduvate
sarna@@
saastaja
rändevoogude
rohel@@
reservi
reguleeritakse
radioaktiivsete
raad@@
püütud
põhis@@
piirkondadel
piirdu
piiratakse
parlamendisaadi@@
parandades
paralleelselt
palgad
oluga
negatiivselt
mõjudega
mom@@
mili@@
majandused
laine
konveren@@
kontser@@
kolmandat
kodanikualgatus
kataloo@@
kaart
infosüsteemi
ilistes
hoidnud
hiljutist
geograafiliste
foorumi
esmatähtsad
endast@@
eiratakse
ebamäär@@
dünaamili@@
dumpingu
autoriõiguse
autorite@@
asjasse
arutab
arusaada@@
arendustegevusse
ametivõimudele
alternatiivse
alkohol@@
aktsi@@
abis@@
Ste@@
Sal@@
McCreevy
Kom@@
Islam@@
FIE@@
Atlandi-üle@@
ühelgi
wa@@
võrrelda@@
viimaseid
viibivate
viibida
vanuse
valimise
vahetuskur@@
vaatlema
uutesse
up@@
töötingimusi
töötasid
töötajatest
tööajaga
tõs@@
tähtsusele
tuseid
tugineda
tsivilisa@@
teostamiseks
teabega
surmanuhtlust
sotsiaalkindlus@@
sihiks
senisest
saaste@@
päri@@
prü@@
piiriüleses
pidasime
partnerluslepingu
parandaks
paindlikud
paindliku
orien@@
oopi@@
ong@@
muutmisel
militaar@@
läbirääkimisteks
liko@@
langu@@
laialdast
kõrgemale
kõnelen
kõn@@
kohaseid
kohaldatava
kog@@
kki
kindlakstegem@@
kasulikku
karistatakse
kaotatakse
kaitseme
kahepoolne
kaetud
kaasamiseks
hüvitamise
hävi@@
hariduskomisjoni
halvemaks
grammi
globaalset
funktsionaal@@
fraktsioonile
fraktsioonidest
ettepanekusse
etendab
esindatuse
elukest@@
edastab
edasiseks
ebaselge
dv@@
dise@@
dinud
asetab
aruandluse
anta
ande
alternatiiv
ajavahemiku
Täna
Ole@@
Ni@@
Liiban@@
Hol@@
üliolulised
ületamiseks
üksmeelel
võitlemist
väikel@@
viibimise
töötud
tähtsuse@@
tsioonim@@
toidule
tede
tavapärase
suunatakse
susi
surevad
stabiilsusmehhanismi
serb@@
saksa
rikkuse
rikkuda
ressursi@@
reformidega
reaalset
ranspor@@
praeguseni
pikki
pikendamise
passi
pakkuvate
oodete
omanikud
nädalavahetusel
nap@@
määraga
män@@
moraal@@
lisesse
lendude
leidmisel
lahenduseni
lagune@@
korrektselt
kohe@@
katastroofid
kaluritele
kadumise
järkjärguline
jalu@@
iu@@
istungisaal@@
inu@@
ingust
iliselt
ikute
hoiaku
hoiak
heitkogused
hab@@
gast
ettevaatlik
erandit
eelarveto@@
ebakindel
dialoogile
demokraatiast
arvete
alustasime
allkirjastatud
alikuks
algatas
alale
SA@@
Prantsus@@
Politsei@@
Makedoon@@
Lõuna-Korea
Joseph
Ham@@
Elmar
Bir@@
Atlandi-@@
Assoor@@
78
1995.
üldisest
võltsimis@@
vältides
väljakuulutatud
vulka@@
versioon@@
veendumust
vastand@@
varasid
valus@@
vahe
tõstmist
tuumaenergiat
tub@@
tru@@
tere
takistus
sõjaväe@@
sunn@@
standarditest
siduvaks
selgemalt
seisvaid
sarnas@@
sammuga
saadeti
rõhutasid
ride
remon@@
reguleerib
raudteede
põhjalikke
poliitvangide
pilti
otsusest
optimis@@
omista@@
nälja
nähes
naist
loogik@@
levitada
leiu@@
laskma
kõnealusest
käsitlemist
kutse
korrektne
koole
kompromissettepane@@
kohtumiste
kohtud
keskkonnan@@
kaubanduspartner
kamad
kahesu@@
jõus
järgu@@
juurdepääsuga
hüvitise
hoiduma
hiljutisi
hiilida
halduskoormuse
ettekan@@
eskirjad
esialgset
elud
elektroonikaseadmete
efe@@
eesmär@@
eerida
dam
dadesse
bia
avar@@
arutlema
aruka
aruan@@
ajas
Põhja-Iirimaa
Prae@@
Parlamendist
OR@@
Moskva
Kes@@
Jouyet
Jeem@@
Šveits
ühendamise
õigusriik
õiguspärasuse
võrdsus
veterinaar@@
veenduda
vasturääki@@
varustatud
varasemate
vajatakse
täit
täide
tuberkuloosi
tsiviliseeritud
tegelemine
teerivad
sümbol
sõidukeid
suve
suhet
stiimulid
sissenõud@@
siseturu@@
reformilepingu
raportööride
puuduste
piimakvootide
peatselt
osast
omale
näide@@
mõistis
muudatusettepaneku@@
moodustama
metest
maksustamine
loodavad
liigi
lda
laia
kvaliteetsed
kurjategijad
kontrollimist
kohaldatavate
keeldus
kahjulikud
jõudmine
juhu@@
juhtiva
juhtimises
inspire@@
ilmastiku@@
hääletusest
heidu@@
gene@@
firmade
farmaa@@
erilisi
energeeti@@
enamikku
eesistujana
dini
demokraatlikule
austa
ausat
audiovisuaal@@
asus
arvuga
arutamiseks
aat@@
Richard
NA@@
Kontrollikoda
Kenya
Hamas
Špidla
ülemäära@@
ökosüsteemide
õiguseid
võimsuse
väärtuses
väljendus@@
väljapressi@@
väikesi
vinud
viimati
via
vasa@@
varad
ungari
ulatuslikke
töörüh@@
tõstma
tus-
tundega
transpordile
tehnoloogilise
teet@@
tasakaalustada
tagur@@
sündmustele
statistiliste
soovitustega
seisuga
sasti
saasteainete
reisimise
rassis@@
rakendusal@@
päevakorrapun@@
päevade
presidendil
porta@@
politsein@@
pinnase
piiritle@@
pensionile
peatamiseks
panka
paluti
palk
otsustame
omi
neljanda
naeruväärne
mõjuhinnangu@@
mini
mahtu
madalad
liidrid
levikut
langes
lahendab
kõlab
kätes
kuulutan
kontrollile
kohustustele
kogukondadele
keeldumine
järgne
jumala@@
istun@@
iro@@
ideaal@@
hüpotee@@
hõlps@@
hõlmava
häb@@
hoolekan@@
hetkeks
heanaaber@@
halla@@
haarata
genotsi@@
garantiid
enneolematu
endat
eluiga
eitada
direktor@@
dep@@
dala@@
bor@@
biomas@@
astamiseks
arengute
anne
algse
ajude
age
aegselt
aeglane
Toiduohutus@@
Selle
Lis@@
Kuigi
Kontrollikoja
EXi
Arvestades
ülesandega
õpilaste
õnnitlused
võrgustikku
veebile@@
vap@@
valitsustevaheline
tundus
teaduslikke
tapp@@
sööda@@
sõber
sit
sealsete
sealse
seadusandlikku
samale
rõhutavad
ril
rikaste
riigipöör@@
registreerimise
rakendataks
põhiseadusliku
päästmiseks
poliitilisse
pihta
peatükk
peakor@@
paljuski
nõusolek
nõua
nult
määrama
mandaati
lõpetatud
lõpetame
läbivaatamiseks
lubadus
looduse
liikumapane@@
laene
kõrvalehoidu@@
kuda
korraldamiseks
konkurentsis
kolleegile
kollee@@
kohanemise
kodanikuühiskonda
klassifitse@@
keskendume
kemik@@
keeli
katsete
kandidaat
kahjulikku
jõustumisega
järjepidevuse
jälgitavuse
juhtimisega
jaotada
integreerimise
inimestelt
igaühel
häälega
hiili@@
garantii
fossiilkü@@
enesest@@
energiat@@
energiaalli@@
ea
diktatuuri@@
bilansi
bel
astab
ana@@
amuu@@
ameeriklased
alikke
ajalooliselt
aha
Ver@@
UN@@
Tšaadis
Progress
Kesk-Euroopa
Cohn-Bendit
2013
0
Šve@@
ümberstrukture@@
ülemäära
üleilmastumine
äära
väärikust
väljaõppe
väliseid
vastavus
valdkondadega
vahendiga
uurinud
uudis@@
ustesse
ulatusega
töötajatega
tõstatati
tõrje@@
turvalise
turgusid
tundlikud
toorainete
temalt
teadusliku
takistanud
suhk@@
stiimulite
spetsialis@@
sobivat
sissetulekut
sena@@
sch@@
räägiti
rist@@
reformiga
rahvuste
pühendumus
pärandi
praktiliste
piirdub
patri@@
palusime
olemasolev
olemas@@
naela
mõningast
mõlemas
mullakaitse
maff@@
madalamad
lubades
lipu@@
liike
leg@@
küsimusse
külmutatud
kõl@@
koode@@
konkurentsivõimeliseks
kohaldamisest
kliimat
kinnituse
kavandatav
kasutaks
kaotasid
kahetsusväärseks
jõupingutustes
jaotuse
jan@@
jaa@@
iski
iisrael@@
hinnatõus
hindavad
fondile
ettevalmistamise
eeldus
edaspidi@@
ametit
ajakohastatud
ajakirjanikud
aali@@
Washing@@
Regioonide
Pärast
Prantsusmaale
Google
EK@@
Cash@@
ši
üksteisest
ühingute
yle
väitnud
valu
valikud
vabakaubandusleping
vaated
uurimiseks
tuur@@
tunnustanud
tulekahjud
tsükli
tooraine@@
toimetulekuks
teostatud
teisejärgu@@
teenistust
tavapärane
tariifsete
tand@@
tagasis@@
süvalai@@
suurepär@@
suurendamisega
suitsetamise
suhtub
soove
sihid
rini
repressiiv@@
raamotsuse
püsivalt
põne@@
põhjendamatu
põhimõtetel
protsendi
professionaal@@
positsioonil
plaanide
pah@@
otsustele
näitaks
nägemus
nimetame
neljast
narkootikumide
märgis@@
mobiiltelefon@@
mendi
maju@@
majanduskriisis
lõhna@@
lubame
liikumisele
liikmesriigiti
liidul
kuning@@
kristlased
korrumpeerunud
kohustuslikku
kohtumised
kogemuse
kits@@
kirjeldatakse
kehtivuse
kaubanduslepingu
kandidaatide
kalalaevas@@
kaebu@@
jõukust
jäta
järkjärgulise
jaotamine
instituudi
erimeet@@
era-
eksportida
auväärt
asukoht
amõõ@@
aller@@
Toetasin
Os@@
Olli
Nigeeria
Luxembour@@
Lamassoure
FIEna
EUR@@
BR@@
Aasi@@
89
63
š
üleilmas@@
ühiskondliku
äita@@
vöö@@
võõrand@@
viibib
veebi@@
töökohtadele
tsust
tras@@
tollal
teravilja
teistmoodi
seades
ru
resolutsioone
puuvilja
propageerida
propag@@
pretse@@
ppi
peatamine
patsiendi@@
otsustatud
osutanud
ol
ohuga
nõustusid
metsa
metele
madalama
lõpetab
lootus@@
liitumise
ligitõmba@@
lapsendamise
laiendama
laagri@@
kvaliteetset
kuhugi
kontrollid
kohaldataks
kivi@@
kinnipeetavate
kiirusega
katest
kasvust
kame
kajas@@
kaasotsusta@@
iseloomustavad
innovatiiv@@
ilmtingimata
ikaitse
hinnanguid
hele
hasart@@
harmoon@@
halvem@@
gusest
fondidega
esindajatele
ennusta@@
eluga
elam@@
eeskirja
eerimise
deklareerimata
arenguriikidele
alustan
alustala@@
ajutist
Zapatero
Yorgis
Ungarit
Mit@@
Malm@@
Maailma@@
Luksembur@@
CO@@
üleilmsete
üheminutilised
õun@@
õlu@@
vigadest
vastuseis
valitsustel
valgus@@
undi
tõhustama
tubaka
tsiviilelanike
tsiviilelanik@@
terviklikku
teadus
tarvi@@
taastamiskava
suutmatus
summat
sse@@
silmad
sidusust
separat@@
samasuguseid
rünnakut
ry@@
rum@@
ritega
rapor@@
püüdlustes
püsivat
puhkus
presidendina
pira@@
pikkust
peatamise
parameet@@
paista
otsi
osalemiseks
omadusi
näidatakse
mõtlevad
moodus
moodu@@
maale
loomasööda
loetle@@
lisades
lennujaama@@
leiti
laskmise
laevastiku
kätke@@
kärped
kuuluva
kuh@@
ktri
kriitilised
kriisid
kolmandatesse
kolmandas
kodanikule
keset
kella
kavasse
kasutus
kaasava
järjekordse
järelduse
istuse
isektor@@
hüvitiste
hõlmates
hartat
gude
gaas@@
etele
energiaallika@@
else
elementide
eesistumist
eeldavad
asuv
astuvad
aegne
Ungar@@
Silvi@@
Merkel
Lääne
ECO@@
Angela
0ndatel
Šo@@
ümbersuun@@
ülevaadet
ülese
üleilmsel
üleeuroopaline
ühin@@
õpeta@@
Ühendriikidest
võtaksime
väljaõppe@@
viisanõudest
vide@@
vajal@@
uud@@
täidaks
tähtsaim
turusta@@
turun@@
tunnistamine
tundlike
tset
trol@@
traditsioonide
terv@@
terav@@
telekommunika@@
teenus
teabevahetust
tagu@@
suri
super@@
staa@@
sk
saavutata
rühmitused
ratifitseerima
raadio@@
püüdlustele
püsivad
päevakorrapunkti
prügil@@
protsessid
praegustele
pakkumisel
organis@@
olukorrad
nõuetest
nähtav
mõjuhind@@
mudelite
monopolide
midel
meretranspordi
mee@@
mata@@
maksimaalne
läbirääkimistest
liikmelis@@
ld
kütte@@
kõrvuti
kõrgemaid
kutsehariduse
kurite@@
koondamisega
kellelgi
kelle@@
kaupa@@
kasutajad
kantsler
kampaaniate
kallis
kaitsmisega
jõupingutustest
järgnes
jaam
j
innustada
hinnangud
gim@@
fraktsioonil
ettekään@@
energiatarbimise
elavatele
eksport
ehitamine
eelarvekomisjon
devahelist
dev
bour@@
augustis
assotsieerimislepingu
alli
ajaliselt
administra@@
U
Soomes
Majandus-
Koo@@
Jean-Claude
Hiin@@
-ni
üritama
ülevõtmine
õpetajate
vära@@
väljuda
väitega
vundam@@
visan@@
viidanud
veid@@
vastutasuks
vastuolusid
valdkondadest
vajakajää@@
uuestisõn@@
töötamist
tõhusale
täiskasvan@@
tähendas
tutvu@@
tundi@@
tugevdanud
tideks
sõidukijuhtide
suguelundite
soovisid
soost
soodustamiseks
sissetuleku@@
sellelt
selgituse
seame
saadavad
ringhää@@
reageerimine
raportil
rahastab
rahal@@
palvet
omandatud
natsionalist@@
mõtis@@
mõjutas
mõistate
määravad
mitmele
läbikukkumine
lootuses
lipu
liikmetena
liikmesriigiga
liidri@@
käsitlemine
kuulutas
kult
kroon@@
korrapära@@
konventsioonide
kontinendi
konsulteerimise
kerkivad
keelduvad
kauplemist
kaun@@
kasutusega
karmilt
kahjuliku
kaasaegse
jõulist
jätmist
järelevalveasutuste
hulg@@
fraktsiooniga
foto@@
etu
erineval
emad
diskrimineeritakse
diploma@@
allapoole
akt
adiga
Reh@@
PS@@
Montenegro@@
Louis
Hannes
Darfuri
CE-vastavus@@
Brüsselisse
Brüssel
Austraalia
66
&apos;le
ületanud
väge@@
volinikuna
viiendaks
vaste
vastatakse
vahetamine
vaesuspiiri
töökohtadest
tõlke
turustus@@
tsus
tootmisel
toimeta@@
tihedama
testi
tegelemise
taolised
sümboolne
suurimaks
suuremeel@@
suhetest
sisese
seisukohtadega
resolutsioonid
religioos@@
raadi@@
püsimajää@@
pärane
puudujääki
presidentuuri
olite
olevates
näitame
nimetati
mäng
murettekitavad
mitmeke@@
mitmeaastane
missu@@
milliste
läbivaatamis@@
loosun@@
lisan
kõneles
korrup@@
koostalitlusvõime
kohustab
kisid
kehtestas
kehtestame
kavatsusi
kaitseal@@
kaduma
juhendi
ikega
ial
hoiatada
halvenenud
gustest
etiliselt
etakse
erivate
ennist
enese
ell@@
eesistujariigil
eelduseks
ebaausate
distsipli@@
demograafilised
defitsi@@
damata
bioloogiline
atlandi@@
aspektidele
asjal@@
amisse
ametiühingud
ajale
Tri@@
Ti@@
Sz@@
Mosk@@
Kopenhaagen@@
Euratomi
Afganistan@@
üleminekuperioodi
ühendamine
ys
võitleme
viinamarja@@
valitsuses
tõmb@@
transiit@@
tihtipeale
teostamise
taastuvatest
südamelähe@@
sõita
sätet
suurusest
suhe@@
strateegiasse
sadamate
rahandusministrite
pür@@
põllumajandussektoris
prioriteeti
poliitikuid
partnerluses
omaalgatusliku
ohjamise
nõudsid
mõttega
määrati
meni
maailmam@@
lisemaid
ler
laieneb
ladustamise
kõrgemate
kohaste
kavandatava
kavandamise
kasvada
kasutuselevõtmiseks
kassettlahingumoona
kandidaadi
juhtal@@
joon
jaolt
iseseisva
iga-aastase
hõlmas
hooleks
heitkogus@@
heiteid
haavatavate
fin@@
eskirjade
emast
diplomaatiliste
alases
Ukrainat
López
Jorda@@
Hondu@@
Broki
Ara@@
ületavad
üldisi
õpetada
võtu
võitlemisele
võimas
väärtuslikku
vastutustundlikku
umiga
tõsiseks
tõe
tänavu
turujärelevalve
tsionalise@@
tseremo@@
transpordis
top@@
tegevuskavaga
tahtest
tagamisega
sõb@@
säilitatakse
säilitab
suulised
stöö@@
sotsiaalpartnerite
soodustusi
sidusus
samb@@
saadav
ringlussevõtu
rina
reisijate@@
reguleeriv
reaalmajanduse
rajamist
protses@@
proo@@
poliitikaks
pikad
partnerina
orja@@
okupa@@
nõustus@@
nakkus@@
mõttekas
märgistamist
muuseas
maksupet@@
maksi@@
maailmaga
levad
landi
köögi@@
kõneleda
käitlemise
käita@@
kritiseerinud
korruptsiooniga
kokkuleppeni
kodifitseeritud
keelustamine
kaitse-
jõupingutustega
jätkamiseks
järjepidev
jaot@@
jalakäi@@
intellektuaalse
inspek@@
informeeritud
individuaal@@
imises
illega@@
hõlbustab
haridussüsteemi
haiges@@
fraktsioone
finantskriisile
eurovõlakirjade
ettepoole
eriesindaja
enduseks
endamis@@
emisest
ebaõnnestu@@
eal@@
dra@@
bak@@
astutud
asjaosaliste
arenevad
ajutiste
abielu
Solidaarsusfondi
Peter
Inter@@
Inglismaa
Iirimaad
Hispaaniat
Daniel
Budap@@
Alexander
88
68
üsi@@
Ühtekuuluvus@@
võidavad
väljam@@
väikese@@
vitus@@
vastasele
valmistama
valitakse
vaeva@@
vabakaubanduse
uutel
uudi@@
töötas
tti
trahvide
toodetest
tinud
tekstist
teadaolevalt
taolist
taimekaitse@@
sõiduki
suurenevat
strak@@
sto@@
sobivate
seaduslike
satub
rüü@@
rahumeelselt
puudumisel
pretsedendi
poolse@@
pikaajalises
peetava
peadirektoraat
paralleel@@
pakiline
pa
olevatest
naftat
märkimist
meie@@
meetmega
meen@@
matul
maailmakaubanduse
lõimumist
levib
let
lasknud
külg@@
kujundamise
kristlasi
kriminaalõiguse
kordumist
koordineerimis@@
komple@@
kohati
kohaldatavad
kohaldatav
kodanikuõiguste
kasvatada
kasutavate
kaja
kaasparlamendiliikmeid
jõudmist
jätkan
juhised
itsu@@
human@@
haavatavad
finantsjärelevalve
esialgses
erakapitali
ennustada
energiapoliitikat
energiapaketi
emakeeles
elanikkonda
edaspidigi
daksime
bunud
astumist
ares@@
anal@@
aliikide
aastate@@
Ukrainale
Maa@@
Europol
Ca@@
Aafrikast
ühisesse
õigusabi
ñ@@
ääres
°
võrk
väidet
viisarežiimi
vastuste
vastatava
valmistanud
valimine
vaidlused
tüüpil@@
tõsiasjast
tähtae@@
tunnistas
tunnid
tumaks
traditsioonilise
tiks
the@@
tegudele
tagajärgedele
spetsiifi@@
siiamaani
selgro@@
seitsm@@
seisukoha@@
saabuvad
ruumis
relvad
raudteetranspordi
põhjustega
puhas
proovik@@
post@@
poli
paneme
paindlikkus@@
osaüh@@
omavalitsused
ohuks
näitena
nautida
määratlemise
määramine
meeldetule@@
masen@@
lükkasid
lõpetades
läbirääkimistesse
likumate
lihtsusta@@
küla@@
kõrgemal
kõrgeid
kulunud
kriteeriumite
kohtunik
kohaga
kaupadele
kasulikke
karja@@
kaitses
jälgimine
jun@@
juhe
isena
intsi@@
inid
hor@@
hiil@@
heitmeid
heidete
fääris
etöö@@
epide@@
elektrienergia
edumeel@@
delege@@
bun@@
boiko@@
aspektidega
allkirjastada
aegunud
aega@@
Wall@@
Sahar@@
Liechtensteini
Ku@@
Kas@@
Er@@
Bau@@
Andsin
58
ülemaailmselt
üldasjade
ühiseks
ühendusi
èsi
ärgi@@
võitu
võistle@@
väljas
vähemasti
vastamiseks
varasemast
valitses
usuun@@
tõenäoli@@
tutvusta@@
transpordipoliitika
tohutute
tausta@@
sündmustest
subsiidi@@
soovitaksin
soo
seni@@
selja@@
seisust
samadel
rännet
rändepoliitika
rubriigi
ro
reitinguagentuurid
ravimitele
rahvuse
raamprogramm
põhjendus
poliitikavaldkondades
piloot@@
pikendamist
patsientidel
omisjonis
omadused
nõusole@@
nak@@
muutumist
meediak@@
lugupidamist
langetatud
laiaulatuslikku
kümneid
käsitlus
kriteeriumi
kokkuhoiu
kohustuslike
keskendumine
kaubandussuhete
jõustamine
jaotamist
investorid
instrumendid
institutsioonilist
idetud
hiljaks
halveneb
fossiilkütuste
eringu@@
entusiast@@
eneva
enduses
ebasoodsamas
ebakindla@@
ator@@
arvestatud
aril
ariigi
algatanud
akredi@@
ajakirjanduses
abik@@
Tšernobõli
Trichet
Sudaanis
Sotsiaalfond
Kõne@@
Andre@@
õigustab
õiguskindlus
ärakasutamist
viitasite
vapr@@
vahistamis@@
uudiseid
ustus@@
tš@@
tööturu@@
töökoht
töökava
tõsiasjale
tõhusamaid
tõel@@
turustamise
tulemuslikkust
tsiviilisikute
tsioonisüsteemi
tsentraliseeritud
tsentr@@
toetatud
terviklikkuse
terrorismivastane
tekstiili-
tehnik@@
teerimine
südames
suundumus
sooviksid
seisukohta@@
seisnud
segadus
rikutud
ranget
püüe
püüdis
põllumajandusega
puudutatud
punktiga
programmidega
positsioonile
poolda@@
perspektii@@
pealkirjaga
paberi@@
otsustatakse
osutatakse
osakes@@
orra
olene@@
nimed
müük
möödapääsmatu
mõnd
mõjutaks
määratlemine
muudeti
ministeeriumi
met@@
massilise
maksusüsteemi
lähenemisviisiga
lubata
lootuse@@
liini
laine@@
laiendatakse
korraldanud
koolid
kolma@@
koduab@@
kodanikuühiskonnaga
keeltes
kaasates
jõustus
jõust
järelevalvega
initsiatiivi
ii@@
holo@@
erit
emia
elavdada
eksisteeri
eelnõu@@
dollar@@
avaldamine
astme
asjaolude
aliha
algul
ajas@@
ajaloolist
ahvatle@@
aati
Tervitan
SWIFTi
Rü@@
Red@@
Prahas
Pagu@@
Iseseisvus@@
Hi@@
George
Föderatsiooni
Fischer
Davi@@
Austraali@@
Antonio
Aleks@@
110
11.@@
õigusriiki
õiguslikust
ärevust
võtmisega
väärseid
viisiga
vastuvõtu@@
valitsemissektori
unik@@
tšeh@@
tööstus-
tõlkim@@
tähistada
tulid
tootlikkuse
tehnoloogiasse
teeritakse
teemalise
tasemete
tapeti
taotlemise
tagatis
tagakiusamine
sügava
sõnavõtte
sunniviis@@
struktuurifondid
seisne@@
saks
röövi@@
räägi@@
pöörame
põhiseaduses
põhimäär@@
pikkune
peabki
parandatakse
ou
oks@@
nädalas
nano@@
nal@@
munud
mude
mitmetele
mena
mel@@
maksmine
maaga
lühikest
ll
lisamise
liigita@@
laurea@@
lahes
kvalitatiiv@@
kumbki
kulge@@
konsultatsioone
konsensust
konkreetsel
kogumiseks
keskkonnaalase
kaubamär@@
kata
jalgra@@
institutsioonidevaheline
humanitaarolu@@
globaliseerunud
gite
erinevus@@
elutingimuste
elektroonik@@
eeru@@
eelarveid
edaspi@@
cu@@
audiovisu@@
assistentide
assigneeringuid
asjaomastele
arusaamatu
artiklite
ametiasutusi
allkirjastamine
algatustele
aktsia@@
aktiivsemalt
Tan@@
REACH@@
McGuin@@
Keskkonna@@
Iraan@@
General
Ferrero-Wald@@
El
Agen@@
üleste
ühtla@@
võimalusena
võimalikele
väljendati
väikes@@
vähenevad
viime
viibinud
vahetevahel
uskuma
tööstusliku
tutest
turvaline
toetate
taastamist
sõnastuse
suurepäraseid
sooj@@
situ@@
siks
sen
selleta
seisvad
sedavõrd
ret@@
rahuldava
rahalistest
põhiseaduskomisjoni
põhimõte@@
projektist
person@@
olulisu@@
nör@@
noore
naistevastane
määratlust
mitteametliku
maksumaksjatele
majanduspoliitikat
lühinäge@@
loetel@@
käivitanud
kvantita@@
kutsuti
korrektsed
kiireloomuline
kategooriasse
kaasatus
järelemõtle@@
juuri@@
julgeole@@
iksime
hoidmine
hankida
globaliseerumine
gaas
eurolt
esines
erimiseta
ekspordik@@
eesistujariigina
ebastabiilsus
dimen@@
aluseid
alistes
ajani
Vabariig@@
Suu
Shal@@
Seišel@@
Qu@@
NUTS
HIV
Guine@@
Berlusconi
ülepüü@@
ühisassamblee
ühemõtteliselt
vormis@@
voor
viisavaba
veresa@@
vand@@
töötlemise
tunnustame
tip@@
thy
tehnoloogiliste
teadlikkus
tasakaaluni@@
tarbijakaitset
tapetud
taotlevad
tai@@
sõnumeid
stimuleerida
soodustused
selan@@
sealne
sammuna
rahastamisel
raadiospe@@
põllumajandusettevõtete
projektides
projek@@
piiramatu
peetaks
pain@@
pagulas@@
operatsioon
oleneb
odavam
nõudmise
müügil@@
märkide
märgata
mitmekesista@@
metsam@@
mesin@@
majanduskriisile
lõksu
lää@@
lootma
liikumisvabadust
leri
langetama
lahti@@
kümnest
kuupäev
kulul
ksenofoobia
kri@@
kontor@@
kolledži
koguses
kirjast
kiirem
kehalise
kasvas
kaasseadusand@@
jäätmekäit@@
juhtimisele
jalge
itesse
inflatsioon
ilmin@@
ie
hügieen@@
hõlp@@
hoid
geda
fos@@
facto
ettepanekul
energiajulgeolek
eelolevatel
edasised
dekomisjon@@
bul@@
asutust
asustatud
aluspõhimõtteid
Washingtonis
Vietnami
Tši@@
Th@@
Teher@@
Kanaari
Balkan@@
61
194@@
10-@@
&apos;s
ünna@@
ülimus@@
án
Ülem@@
väljendavad
vood
vilets@@
vil
viivitamatu
viisi@@
viimiseks
vastuvõtmisest
tänaseni
tähelepanekud
tunnistavad
toetamisega
tine
tem@@
tehased
tees@@
teateid
taotlused
sõprade
sotsialistid
soovitame
sooviga
solidaarsusel
skandaalne
sisserändajatele
seadmeid
sam
rohke@@
restrukture@@
reageeris
põhjendada
põhiõigus
põhiseadust
puude
produ@@
peeta
parteis@@
oota@@
omadus@@
nädala@@
neu@@
mõrvam@@
mänguasjad
moon@@
maandu@@
lähiaastatel
loomad
linn
liikmesriikidevahelist
liigid
lennuettevõtjatele
laiem
kuuldavaks
kusi
krediiti
kontsernide
kontrollitakse
konkreetsetes
kohandama
kohaldavad
klub@@
kindlustatust
katastroofidele
kalapüügiga
jõe
järeldada
juhuslikult
jaotus
isikuandmeid
importi
imates
idaosas
hävitavad
hunta
heli
heide@@
haridusta@@
ettek@@
esimesele
endilt
edasimineku
drasti@@
dioksi@@
biomeetriliste
avaldasid
aruandest
andmetega
andid
aidatakse
Tam@@
Pat@@
Kaukaasias
Dim@@
Demokraat@@
Bologna
Alain
93
1989.
ühtsele
ühisresolutsiooni
ühiskondade
ühemõ@@
öelge
õigus-
ÜROs
võlga
võimalustega
väljakutseks
vem@@
varajases
vaielda
uti
uri
tööandja
tõusis
tuvastatud
tursa@@
toitu@@
tiku@@
tihedam
terin@@
tehaste
süüdistusi
süsinikdioksiidiheitega
suudetakse
suste
surmaga
sotsiaalteenuste
sihtotstarbel@@
saamisel
riigilt
ral@@
rakendame
päran@@
puudutavat
pikema
peatama
parempoolsed
panu
otsustest
nägi
nuht@@
noor
nike
määrusele
määratleb
mänginud
matusega
materjale
maavärin
lükkab
lähiajal
languse
küsit@@
kriminalise@@
kohaldamiseks
kogemusest
kodaniku-
kodanikelt
keskmisest
kaubandusta@@
kasvatus@@
kantserogeen@@
kaasmaal@@
järjekindel
jälgivad
justiits@@
juhti
juhatus
itoot@@
idil
globaalsel
geni
fondiga
fan@@
etendada
esmaj@@
erasta@@
eelnimetatud
distsipl@@
avatus
avaldamiseks
asjale
arme@@
arengus@@
aran@@
april@@
ametisolev
aegl@@
Tom@@
Serbias
Saksama@@
Narkootikumide
Mercosu@@
Järele@@
Haiti@@
Ferrero-Waldner
Eurovignette
Europe
Brasiiliaga
77
57
2,5
ökosüsteemi
ärjekorras
zy@@
väljendame
viidates
vangi@@
valimistele
vaadete
uraani
umide
ukrain@@
tühistamise
tööstu@@
tõusta
tänaõh@@
toidu-
telef@@
tarbimis@@
sündmuse
skit
sisalduvaid
seondub
saadaks
rikkad
raisa@@
protektsionis@@
presidendiga
porno@@
pon@@
plat@@
palgat@@
opia
odava
number
nimetamise
nimetamine
naa@@
mõeldes
märka@@
muutmisele
muudatusettepane@@
maksusoodus@@
lubam@@
loobumist
leppisid
kõiges
käsitleta
kutsuksin
konfliktis
kokkuvarisemise
kinnisvara@@
kese
kanalite
kaitsek@@
kade@@
junud
istusest
investeerinud
institutsioonili@@
igid
hoidmiseks
foo@@
eelnõus
eelkõnele@@
bioloogi@@
assotsiatsioonilepingu
assigneeringu@@
asjaosalised
asjana
asjadele
arukalt
aktivistide
ajaloost
aegla@@
Võr@@
Teise
Soovin
Schul@@
Pariisis
Malcolm
Lääne-Euroopa
Kõigepealt
Kla@@
ENP
Daul
Arengufondi
91
53
2007.-2013.
-2010
ümberkorraldus@@
ülevõtmist
üleskutseid
ülesannetega
ülde@@
õiguspärane
õhutranspordi
za
võitlus@@
võimalusele
vältimine
väidete
volituse
viidet
vanglates
valijatele
vahetu
uuritakse
tõendite
tähtajaga
tsiviilelan@@
toodang
toimiku
teabevahetus
tariifide
süsteemidega
suurendamisel
surm
subside@@
struktuurifondidest
stressi@@
solidaarsusele
skan@@
sidusrühmad
sertifika@@
saadava
rolliga
rikkus
regionaalarengu@@
regionaalarengu
rakend@@
rahumeelsete
põhjalikud
progressiiv@@
pinged
pileti@@
pidasid
otsusekindlust
otsib
omadega
olude
nõustute
nafta-
mitte-@@
mitmest
millisel
maksumus
lubaduste
looni@@
liikumisvabadus
levitamise
levik
lepingutesse
küsitav
kutsudes
kuskil
kulutame
kohalikule
klauslit
kiriku
kindlaksmääratud
kehtestamisele
kahetsen
kaasne
kaalume
jätkamise
järsku
jut@@
istel@@
igem
ideoloogia
ideni
idena
ideega
häm@@
gripi@@
gi-@@
gaar@@
gaan@@
energiam@@
elementi
eksperdi@@
eelise
direktor
cz@@
bid
bal@@
asjaoludel
aruteludest
aruand@@
Valuutafond
Ter@@
Peking@@
MT
Komisjonilt
,3
üsnagi
ümberasustamis@@
ühend@@
õigusaktis
võetavad
vusel
viidaks
vastutavaks
vastupidavus@@
varise@@
vanane@@
valitsuselt
valge@@
vaju@@
vaieldamatu
ul
töötust
tööstusel
tööstusega
töölised
tõstetud
tähelepanek
tusesse
tulevastel
tegevuskavade
tavasse
tavaliste
tatsiooni
tahtsid
sõrmejäl@@
suurendatud
suhtume
stusele
sidusa
selgitus
saavutatav
rohk@@
rikkunud
reos@@
reaalseid
rangemaks
pädevuste
punktist
pretsed@@
portug@@
pli@@
paigutada
osalistele
opon@@
omavalitsuse
olulisim
oival@@
näljahäda
näi
naabruses
mür@@
muudatusettepanekutes
mitöö@@
mikrokrediidi
mere-
lõi
läbinud
luure@@
lisemat
lisameet@@
liinide
liikumisvõimega
lapspor@@
külastas
kste@@
koost@@
kohutavad
kohtunike
killustatud
kiireloomul@@
keeldunud
kavatsuste
katarra@@
kaotamisele
kaitsemeetmete
kaitsemeetmeid
kaasnenud
jõutakse
jõule
järgmiselt
julgelt
juhtimiseks
investoritele
innovatsioonile
inf@@
inde@@
ikri@@
igasuguseid
hõlmav
gra@@
geneeti@@
fra@@
finantst@@
eurooplastena
elektrooniliste
ehitamist
eelseisvatel
edastamist
des@@
dalai-laama
avama
avalikule
avalda
asun@@
asjassepuutu@@
arendamisega
ametivõimudega
ametist
Venemaalt
Maroko@@
Loo@@
Lampedus@@
KP
Brit@@
Bosnias
Aung
87
62
1992.
1-@@
üksikasjalikumalt
ühes@@
õpingu@@
õiguspära@@
õiguskindlust
äkki
à
Ühendriikidele
võrreldavad
väljas@@
väikestes
väikestel
veto@@
vastutame
vastaselt
vaevu
vaate
usus
tõkestada
tume
tugevate
transpordisektori
tooteohutuse
toodet
toodab
toimivat
terri@@
teaduslikult
tasa
taastumist
sõlmitakse
struktuurifonde
sotsiaalmeetmete
silmist
riskifondide
reklaami@@
püha
põhineks
puudumisest
punktina
pooleli@@
piiranguteta
pealkiri
pakutavaid
osutama
osaistungjär@@
naaberriikidega
määratlemisel
muudatusettepanekutele
mitel
metsad
menetlusele
meetmeteks
meeskond
meeleheit@@
maini@@
maanteetranspordi
maailmamaj@@
lõpetatakse
läbivaatamisega
lusesse
leibor@@
leebe@@
kümned
korid@@
kontakte
komite@@
kohandamine
ker
karme
kapital
kaitsnud
kaitsest
kahetsusega
järgmisena
istingim@@
hääletamisega
humanitaar-
haavatavamate
gre@@
evade
esindama
erinevust
enesele
emaks
elujõuline
ehitustoodete
edule
dri@@
demograafiline
dami
austan
astumise
arus@@
aruanne@@
arengu-
ametikohtade
alustab
ajavahemikuks
ajakirjandus
administratsiooni
aastapäev
aastakümne
Verheu@@
Var@@
Mehhikos
Lätis
Lul@@
Ladina-Ameerik@@
Ener@@
Bri@@
Bra@@
Bangladesh@@
Ashra@@
67
2008@@
üleeuroopalist
õukogu
õnnelik
Ühendus
võtmisel
vähendamisest
viiruse
veele
vastupanu
vastaksid
vananemise
vaktsiini
uuendused
und
uig@@
tööturgu
töötatakse
täiendama
tulekahjude
tormi
toimuvaid
toimunu
ten
tehinguid
teemadele
teavitamine
soovisime
seisukohtadest
sedasorti
sas
rohkemate
rikkumisega
riigivõla
rahvusest
pöördume
põhist
pääs
programmidest
piimat@@
paluvad
pagulasi
otsustes
otsustavaid
otsime
osam@@
omade
när@@
no
natsionalismi
määrusest
minult
minnes
milt
meeskonna
massiline
madest
lugupidam@@
los@@
lootused
liitumis@@
liikmesuse
lihtsustama
lihtsad
lepe
lahendusest
kõrvaldamist
kvalifikatsiooni@@
kuritarvitamine
konstruk@@
kohtuasja
kindlustunnet
keskseks
kalandus
kaitsetu@@
kaitsemeetmed
kahjustanud
kaeva@@
jätkusuutlike
itaks
isiklikke
inimeste@@
individuaalsete
hulle@@
funktsiooni
finantste@@
ennekuul@@
elektr@@
elava@@
ehitamiseks
eesri@@
eeltingimuseks
dünaamiline
diskrimineerimisele
che@@
bus
avi@@
atel
atega
asutatud
arvust
ard@@
aktsionäri@@
a-
WTOs
Usbek@@
Tadžik@@
Sahara-@@
Made@@
Kur@@
Jeemenis
ELilt
Dimas
Corbetti
Brian
Air@@
ülikooli
ülesehitamise
ülemäärane
üleilmselt
ühtselt
ökomärg@@
õiguspär@@
õigete
és
ärakasutamine
ÜVJP
võlad
väikeettevõtlusalgatuse
vene
veendumus@@
vastupidise
vanuses
vananemine
valdkonnast
turvaliselt
turumajandusega
tuginevad
tublisti
tteki@@
tsis
traditsioonid
totalitaris@@
tervishoiusüsteemide
teadusuuringutele
tabab
sümbolise@@
sõnastust
sõnadest
stuses
stanud
riigisisese
põllumajandustootjatel
põhiseadusega
pädeva
prioriteed@@
perekonda
peatükki
osutus
ofoo@@
nõul
näidis@@
nimetab
naf@@
müra
muutustele
muutmata
mudeleid
matule
maksimu@@
lähtepunkt
lähin@@
litsentsi@@
liigset
lahuta@@
küsivad
küljed
kõigilt
käsitlevates
kusel
kuriteo@@
kuritarvitamist
kulutama
kosmeetika@@
kooskõlastama
kontrollivad
konsulteerida
konkurentsivõimelised
kohtuallu@@
katte@@
kasvatamise
kasum
kamiseks
kalandu@@
kajastavad
kahekümne
järjepidevus
istung@@
ino
iialgi
gustel
geograafiline
fondidele
finantsraamistik
etapil
erainves@@
endamisest
eelnõud
eeldatakse
damaks
bürokraatlik
aspektile
alandada
aktiivsed
aktid
ainetega
Verhofstadt
Taanis
Suurbritannias
Ria
Paul@@
Kõrgõz@@
Kallas
Islan@@
Indiaga
IMF
Fon@@
Amnesty
1994.
ş@@
Ühendriike
värske
välispiiridel
väliskulude
väites
volitus
viited
varemgi
valdavalt
vaig@@
tööstushar@@
tähelepanuväärne
tugisam@@
toiminguid
tohib
tenden@@
tegevustes
tari
taluma
süsihappe@@
sõpra@@
sõjalisi
soodustades
skeemi
sisemise
siinne
seaks
seadusandluse
sagen@@
sageda@@
rõhk
rändajate
riskan@@
rahapoliitika
põlvkond
piimatoodete
petitsioonikomisjon
peamegi
panku
osalis@@
oran@@
olemasolu@@
muses
museks
motiva@@
moraalset
magi
maailm@@
lõpptulemus
lähen
lugemisele
loogika
lil
liikumisvabaduse
liikumisega
lihtsat
kõrghariduse
kõnealustes
kuritarvi@@
konsolideerimise
kogukondi
kliimapaketi
kete
kaugusel
kaotamisega
kannatuste
kaasrahastamise
jätkumist
järgmistele
järgitud
juriidiliste
inimvääri@@
illustre@@
ideta
ia@@
hülja@@
hulgaliselt
heast
föderaal@@
finantsraamistikus
eurotsooni
elektrijaamade
elava
elatist
eksisteerida
eeskirja@@
eelkäija
eelistavad
diplomaatiline
blokaadi
auah@@
arti@@
argu@@
alkoh@@
akte
agentuure
abis
aastaaruanne
Ser@@
Narkomaania
Lõuna-Osseetia
Lääne-Sahara
Krem@@
Gar@@
Farage
Can@@
üritatakse
ühepoolne
väljapaist@@
viiteid
veendumuste
vangista@@
vanematele
vajaliku@@
vaesemaid
vaeseid
vaadatuna
vaadanud
tõrjutus
turukorralduse
tulemuslikumalt
tsüaniidi
tootmises
tootjatel
toimingute
terviklikkust
teostatakse
teoori@@
tehnoloogiatesse
tegurit
tegevustele
teenuseosu@@
tasusid
subje@@
stki
spekuleerimise
sisserände-
silmator@@
silm@@
siinviibi@@
sei@@
sealsed
seaduslikkuse
riiklikel
retoor@@
registrisse
rannikualade
rahandusküsimuste
puudumisega
populist@@
platvor@@
pikem
pidasin
perekonnad
partneriks
panustada
paberil
otsingu@@
ohtudest
nüüdisaj@@
nõuete@@
normaalne
norm@@
noortest
muutumise
meenutama
maksimaalset
maitse@@
maailmaja@@
lükkame
lubasid
loen
lisandväärtuse
liikmelisuse
langeda
külastasin
kurdi
kulutanud
koostööl
konstitutsiooni@@
koguste
kiirendamiseks
keelustamist
katastroofe
kapitalinõuete
kalatöö@@
kahtl@@
kaaskodanikud
jõustumisest
jätkusuutlikuks
juhiseid
itöö
itsioon@@
ilmnes
hääletati
heide
fika@@
ettekirju@@
erista@@
epideemia
ep@@
eesistumisaja
eesistujari@@
eelarveprojekti
eelarvemenetluse
doon@@
biomeetri@@
austavad
assisten@@
assigneer@@
asendatakse
arvestamata
angi
ametikoha
algi
ajate
afon@@
Tš@@
Põhja-Korea
Pun@@
László
Liidu@@
Kal@@
Is@@
Inglis@@
Ga@@
Fili@@
EJ@@
Do@@
Ben@@
Balkanil
Ameerikas
še@@
ühesugused
väärsete
värske@@
vägivallast
vägivallale
volinikuga
vo
varjupaigam@@
valgele
unenud
tütar@@
tõhustamiseks
turvam@@
tunni@@
tsioonidel
tekke
teemadest
teavitamist
teaduslik
tapmise
taolisi
takistaks
sõpradele
säästa@@
suve@@
surnu@@
summas
stabiliseerimis@@
spetsialistide
soojenemine
seose
seadmist
rend@@
reisivad
reformidele
rahvastiku@@
professor
poliitikavaldkondi
perekond
pered
patsiente
organismide
ore
ona
noorte@@
mitmepoolsete
mitmekesisuses
miinimumini
mahajää@@
läbiviimiseks
loetakse
lepingul
laseb
kümnes
kujutel@@
kommunistlik
kommentaari
kolmanda@@
kohtumiseks
kirjan@@
kindlustamaks
ket
kehtivus@@
keha@@
kavandatakse
katsumus
kasvuks
kasutuses
kandnud
kandidaatriigi
julgestus@@
juhtumist
iguste
häälte
hullumeel@@
heakskiitmist
headest
halvenemise
grupi@@
ganud
firmad
finantshuvide
fer@@
faktide
eria
erakorraline
energiasektori
endataks
elujõu@@
eliidi
elatustaseme
eelseisva
edasilükkam@@
autotööstuses
auten@@
arutades
analüüsitakse
ametikohale
aktsepteerima
agentuurid
Teie
Sudaan
SOLVITi
Noorte
Michael
Lud@@
Kash@@
Genfis
Geb@@
Bon@@
Barrosole
Amet
1999
ümberpaigutamine
ühtemoodi
ökoloogilise
õhutada
äritegevuse
võlts@@
vitanud
veenduma
varasema
vananenud
valmisoleku
vahendusel
tõekspidam@@
tähendust
täheldanud
turismise@@
tuden@@
toimimisele
teki
tehnoloogiale
tarbetu
taha@@
sõlmiti
sõlmima
sõjalised
säilitamisel
sundinud
sulgemist
stel
ssi@@
solidaarsusfond
sise-
seli
selgitanud
sekka
seadusandlike
romisid
romid
rohelises
reaga
raudtee-@@
rahus
rahaliit
raga
radio@@
põhinevate
puudujääkide
protsent
praegusi
poolaasta
pealinna
osapooltega
oor@@
omavoli@@
okumen@@
nõupidam@@
nõudsime
normidele
nata
naabrid
mõista@@
märgistus
mitmekordis@@
madalate
lisust
liitumist
lia
lepinguõiguse
leidsime
leiaks
kõigu@@
kuulates
kuritarvit@@
kukkus
ktorid
ksenofoo@@
koostoim@@
koosnev
kompromisstek@@
kolmepoolsetel
kokkulep@@
kogumis@@
kogukonda
karta
jaotus@@
inimkaubitse@@
infrastruktuurile
iga-aastane
hääleta
hoone
hoo
hiljutis@@
hiiglas@@
hierarhi@@
heal
hat@@
haritud
globaalsete
glob@@
finantsmääruse
esilekerki@@
entusiasmi
entse@@
energiasse
emissioon@@
eelkäi@@
edukuse
demokraadid
dast
avaldustega
austame
atori@@
asb@@
amad
alusele
alles@@
alike
Väärtpaberiturujärelevalve
Vabariigiga
Tai
Suu@@
Rober@@
Opeli
Madalmaades
Ida-Jeruusalem@@
Gazpro@@
Füle
Ferreira
0ndate
ähvardavad
ze@@
võrgustikud
võrdsust
võimete
välisministri@@
vuseta
viit
varjupaigapoliitika
valmistas
valitsustega
valgurikaste
vabatahtlikud
vaatevinklist
uuendustegevust
tõendi@@
turvalisusele
tundu
tulevik@@
tugevdaks
trateegiat
toodan@@
tonn@@
tervislikku
tegevuskavad
teenima
tarbijat
taim@@
süütute
süüdistused
süüdimõist@@
sõnavõttu@@
statuu@@
standardi
stabiilsuspakti
siseriiklike
seonduv
ringlussevõt@@
reostuse
regionaalse
raudtee
rassist@@
raseduse
rakendamises
rakendamis@@
rahumeelne
pärinevate
pähe
poliitilis@@
pis@@
parlamendiliikmena
otsekohe
osutas
organisatsioonidel
ookean@@
omavoli
olevale
olegi
ohtudega
niisama
mittediskrimineeri@@
mitmekesistamise
missuguseid
missugused
meri@@
majandusnõukogu
lõpptulemusena
lõpetaks
lootusi
leevendamise
kütuste
käivitatud
kultuurile
kriisiajal
konte@@
kondades
komisjonides
klased
kavandamisel
kavades
katset
kasutasid
kapitalistliku
kaevan@@
järgnevatel
julma
juhtivat
istused
ira
internet@@
iga-@@
hõlm@@
horisontaalse
hilinemise
hartaga
foorumil
foor@@
erakordne
endiste
ekspordito@@
eelarvevahendite
avalikustada
astu
arengumaid
andist
amegi
alustamise
ajutised
Ravimi@@
Paapua
Ladina-Ameerikas
Konföder@@
Jean-Paul
Ing@@
Gröönima@@
Gruusiale
Fre@@
Esiteks
Demokraatlikus
Claude
Aafrikaga
82
71
ž
ühte@@
õud
án@@
võtmetähtsusega
väljakutsega
voogude
voo
vesinik@@
vastutusalasse
varjupaigas@@
vaosho@@
valvsad
valland@@
valivad
vajavate
vajadustest
vahistamismäärus
tööstuste
tõo@@
tõlke@@
tõend
tänapäeva@@
täielikule
tunnistatud
tuletas
transi@@
toe
tlan@@
tiivi@@
tehase
teenustest
teemaline
teat@@
tavalise
tasemed
tarvitusele
taotlema
sõltu
säästu@@
sulge@@
stressitestid
siduvat
selgitatud
seksuaalide
seadustiku
sanitaar@@
riigisisesed
reformimist
rasketel
rannikul
rajamiseks
rahulolematust
põhjustaks
põhjustades
põhin@@
protektsionism
planee@@
pealinna@@
paindlikult
osapooli
orienteeritud
oode@@
ome
omavalit@@
mõelnud
märguanne
mootorsõiduk@@
metsandus@@
meetmetes
maksustamist
maksuparadi@@
maati@@
lüka@@
läbipaistvat
loogil@@
loodaks
loobus@@
loeta@@
lapsehooldus@@
laia@@
kõrgh@@
käisin
konverentsile
kontrolli-
konstruktiivselt
kinnitasid
keskkonnamõ@@
kaotaks
kandidaadid
kaksik@@
kahjustatud
kahjulikke
kaevanduste
järgnevate
jäli@@
jälgimis@@
juurdunud
julgustavad
juhtumitega
isiklike
hommik@@
has
halva@@
etega
erikomisj@@
edusammudele
dti
ditel
arusaama@@
ariks
appi
ametile
alil
akse
abikaasa
aat
Vladim@@
Vil@@
Pol@@
Parlamendilt
Lo@@
Haitil
Georgios
Ale@@
Afganistan
59
ülikoolid
ülemaailmsed
üksiku
ühisettevõtte
õhkkonnas
välismaiste
von
veinitoot@@
vastastikusel
valuu@@
vaatlejad
ustava
tuumarelvade
tulemuslikku
tugevdamisega
toite@@
toiduks
toetaja
terite
tehas
teavitatakse
taol@@
talupida@@
sümbolid
sümb@@
säilitamisele
sz@@
suhetega
staadiumis
sidusrühma@@
selgitas
seletada
segadus@@
satelliit@@
saag@@
röövim@@
rõh@@
režiimile
ress
raskustele
rapu@@
rahvamajanduse
põhjendatult
poolseid
politsei-
pind@@
piirangutega
perekondi
perekond@@
pensioniea
otseste
olemasolevatest
oleku
nõi@@
neljapäeva
märkusega
mitteametlikul
majandusel
läm@@
läbimõeldud
loobumine
logistika
liik
lastelt
laevu
kvanti@@
kuuest
korpor@@
konnast
kogevad
kindlale
keskkonnaalaseid
kellelt
kehal@@
kaalutlustel
jõuna
jõudmise
julgustame
iseseisev
iirlaste
hõl@@
hun@@
hukkus
hoiusta@@
haldamisel
haarama
ennetamist
enesemäär@@
ekspordist
eeliste
doonorite
demokraatlikust
damisse
barjää@@
avale
armas@@
andmetest
amaa
alistliku
algatustega
abikõlblikkuse
Wol@@
Tah@@
Süürias
Somaalias
Reformis@@
Kuning@@
Koreas
Iraaniga
Egiptus
Dur@@
Böge
Barrosot
ümberkorraldamise
ülemaailmsele
ühiskonnast
ühisettepaneku
Ühtekuuluvusfondi
väljavaadet
vool
vilju
vastastikku@@
vastaseks
valimistega
tõsidust
täitmisega
tundlikus
toetuda
tingimuseks
tihendada
televisiooni
tegelikkuse
suuta
spon@@
spo@@
spi@@
sertifitseerimis@@
seisukohas
seevastu
rohkemat
riiklikule
ressurss
resolutsioonist
rahumeelset
rahuldavad
rada
projektidest
praegugi
piiriülesed
piirides
petitsioonikomisj@@
parlamendiliikmele
pakkuv
orj@@
omin@@
olukordadele
olge
niikuinii
mõelge
määrava
monopo@@
minut
mikrokrediidirahastu
metood@@
mater@@
maksupettuste
maksa@@
läksid
lähenemisviisile
läbikukkunud
lood
lahku
kultuurilisi
kriteeri@@
koostame
koostajana
kommentaaride
komiteemenet@@
kliimaga
klassikal@@
kaup@@
kaugeleulatuvad
kaubave@@
kata@@
kak@@
jõustamist
juhust
iva@@
iselt
investeeringuteks
infotehnoloogia
igapäevaelus
iganenud
hüvitada
häälteenamuse
hommi@@
hoiakut
garanteerida
fraktsioonide@@
etappides
energiaalase
emisel
eksperim@@
eeskirjades
edendamisega
eakad
detsentralise@@
demokraatias
bise@@
baas
atki
asva@@
arutamist
artiklid
arengukava
ardi@@
andmast
andke
alune
alasele
abinõude
aastaküm@@
aalt
Véronique
VI
Ung@@
Türgil
Schulzi
Pac@@
Monti
Madagaskar@@
Haitis
Eel@@
ū@@
üsteemile
üldhuvi@@
ühtsu@@
õnu@@
xi
võimekuse
väljakutset
veider
veebru@@
varudest
valitsema
vaktsiinide
vajalikkust
vajaduses
tüli@@
tööandjatele
tõrjutusega
tõendab
tänasest
trahvid
toetaksid
tervise-
teotuse
tegeleva
teerimist
taotles
standard
stabiilset
soovitanud
sisaldavate
sisaldaks
sidet
saajate
rändevoo@@
riskiga
riiklikult
ressur@@
rahuldamiseks
põhivabadusi
põhilise
pärand
pädevusi
plahvatus@@
paremäärmus@@
parempoolsete
nõusoleku@@
nanomater@@
naliik@@
muudatuse@@
murega
maaga@@
lõimimise
läbiviidud
legagi
küsinud
käsitlen
kv@@
kulutavad
kuludele
kooskõlastatult
kontaktid
kokkuleppel
kohtuotsuste
kiiruse
kiired
kidest
ket@@
kannatan@@
kaasliikmed
järelevalve-
juured
juriidiline
juhend
heaolule
hasartmängude
hanke@@
haavatavamad
globaalses
eurorühma
esimeste
esialgsed
erin
eran@@
energiaallik@@
elavaid
dia
demograafi@@
bioloogil@@
aw@@
avastada
avalikele
augustil
amas
alltöövõt@@
aktive@@
abistamise
aastakümnete
Tšetšeen@@
Tra@@
SKT
Pu@@
Liu
Europeana
56
ć@@
üldjuhul
ühtekuuluvusele
ühinesid
õnnetust
õiguskomisjon
võitlusest
väljastatud
voliniku@@
vete
varustus
valmisolek
valmidust
vahendus@@
tunnista
tunduda
tulles
tugevust
traditsioone
tootlikkust
toodangut
toleran@@
tippkohtumisele
ther
tekkimise
tegemisega
teerides
teenin@@
teaksid
talitused
tagasta@@
tagas@@
sündis
spekulan@@
sissetun@@
sisseränn@@
sia
resol@@
rahvuslike
rahanduskomisjonis
pöördunud
põllumajandusettevõtjate
postiteenuste
poolehoidu
pingete
piirmäärad
personal
peegeldavad
parlamentides
paaril
oud
osalt
osalejaid
ometigi
oloogi@@
olevast
okupatsiooni
mõtle
määranud
mateks
mam@@
maanteetranspor@@
lõppemist
lõikega
läbivii@@
luseta
loomasöö@@
lok@@
loetletud
leppimise
laiendamiseks
laiendab
lai
külastanud
kõrvaldama
koridor@@
konstitu@@
kohust
kohandamist
keskustes
keskendun
katsumus@@
katastroofist
kaasaaita@@
kaalumist
jääksid
jätkaks
järgime
juriidiliselt
jagatakse
ja-
itle@@
isesse
investeeringutega
institutsiooniliste
inimväärikust
inale
imperi@@
imehhan@@
igakülgset
if@@
hääled
fossiil@@
eiramise
ebasoodsasse
ebara@@
ebaproportsionaalselt
distsipliini
dissid@@
demokraatlikuks
dates
dasime
aruannetes
amoodi
alar@@
Wil@@
Vik@@
TA
SKP@@
NATOga
May@@
Luis
LKA
Koostöö@@
Internetile
Ateen@@
86
81
25@@
ülemere@@
ükskord
üksikuid
äriühingutele
Ühendriikidesse
väärtuslikud
väärseks
värs@@
väljamak@@
välista
välismaal@@
volitustega
vita
vastutusega
valimiskampaania
vabandu@@
uurimuse
tõrgeteta
tõendus@@
tähelepanekuid
turuleviim@@
tun
tuletaksin
transpordisektoris
tollimaksu@@
toiduainetöö@@
tion@@
tehno@@
tavalised
tarbesõidukite
tamiseni
talunike
sujuvalt
spetsiaalselt
soovid
slo@@
siini
seos@@
riskika@@
revolutsioon
reosta@@
regulatiivse
rahulikult
rahuldavalt
põlvkondadele
põllumajandusettevõte@@
ppe
pikkade
piirduma
pettuse@@
pettus
perspektiiv
partei@@
paremal
parandanud
paljutõo@@
oom
one@@
ohusta
näpu@@
mõjub
minust
minevikust
meelitada
madalamate
lühiajalised
lähikuudel
läbilaske@@
lubaks
lootuse
lojaal@@
likvideerida
liitumine
liidrite
kärbete
kuuluda
kuuks
kura@@
kultuuriliste
kontakti
kompromisside
kompeten@@
kohandamise
koduriigis
kiusatakse
kirjalik
keskkonnakaitset
katsumustega
kasulikum
kaotuse
investeeringutest
imaa@@
hävitatakse
hoiame
haldamiseks
gitud
esindajale
erias
elavdamiseks
eksporti
eksitava
eelarve-
ebaõiglase
dime
digite@@
devalve@@
ca@@
avatuks
augusti
asiga
arist
abita
Valgevenega
Vabariigile
Talibani
Saa@@
Rodríguez
Raud@@
Rah@@
Peaassamblee
Lennundus@@
Ky@@
Kommun@@
Kana@@
Ida@@
Has@@
ELi-Venemaa
Darfuris
CE-@@
Abha@@
AKV-@@
-2013
ülesan@@
üksikasjalikud
õhkkond
ääretult
Ühendkuningriiki
võimekust
väärtusest
väljavaadete
väline
väiketoot@@
voorus
viiest
vet@@
vesiviljelus@@
vede@@
uuritud
usuvabadust
töövõt@@
töid
tõmbu@@
turumajandus
tulevasele
ttevõte
tsiteerida
toetudes
territori@@
tegutse
teatatud
tavus@@
tasustamise
süvendab
süsteemides
säästliku
suhtuvad
stust
soovide
slovak@@
senud
satelliitnaviga@@
sajandeid
rindel
rikkumistele
rahval
rahvaid
raamistikust
põhiväärtusi
puuvilja@@
propor@@
prioriteetidega
prioriteedi
posti
platvorm
pidin
peatati
parlamendilt
parlamendiliikmetest
palav@@
osaa@@
opositsioon@@
olulisuse
olulistest
olulisemat
olemu@@
nia
müüki
mõistmisele
musta@@
murelikuks
murede
mude@@
monopoli
mitmekesistada
merre
meeskonda
mann
maksust
maksame
makromajanduslikku
löögi
lääneri@@
lähimus@@
läbiviimise
läbipaistvusele
lootes
liikudes
liikmesriikidevahelise
liikle@@
lase@@
laiapõhj@@
küsimustesse
kõigega
käsi
käit@@
kuulamise
ktorite
koostöönõukogu
kole@@
kohtunud
kogunenud
kogemustele
keni
kaup
kajastuma
juhtunu
joont
istandar@@
identiteet
hügie@@
huvitavad
huvigrup@@
humanitaarõiguse
hindadele
haldust
finantsjuhtimise
finantseerimise
finan@@
esinevate
esindame
erivat
erita
eraldi@@
eraldati
enesestmõistetav
energiastrateegia
eelseisval
ebaproportsionaalne
ebaausa
bürokraatlike
broneeringu@@
bro@@
avari@@
austusega
atoodete
aruteludele
apel@@
anile
amalt
algatama
administratsioon
Võ@@
Ukrain@@
Ros@@
Pittsbur@@
Liber@@
Käesole@@
Key@@
Kamer@@
ITER@@
Holland
Andreas
116
üsteemiga
ünd@@
ühtseid
ühma
ühineb
võrdsusta@@
võlg@@
vulkaan@@
vik@@
viha@@
versioonis
veam@@
vabaneda
vaatlejate
usena
uimastite
tühis@@
töölisi
tööaega
tõke@@
tõestavad
tõenäosusega
tuumajää@@
tuumajaam@@
tulusid
tsentralise@@
toimepandud
tme
teerima
tatavad
taastuvenergiat
sõiduautode
suhtlemise
siseasjadesse
sihipära@@
segatud
satelli@@
samasse
rikkust
reiside
reaktorite
reageering
rassi@@
raiskamine
pühendumine
põhjenduse
pretsedendi@@
presiden@@
pinnal
pingutada
pikal@@
peale@@
parlamentaarset
operatsioone
omane
omaduste
ohtudele
nis
naviga@@
nats@@
mõjutama
mõistlike
märku@@
mäletate
minule
ment
meetmetesse
manööverdamis@@
mandri@@
maailmasõda
lühiajaliste
lähedalt
lisasse
likkuses
kütust
kõlva@@
kättesaadavaid
kätesse
käiku@@
koostoime
konventsioone
kolleegiumi
kohuseks
kohaldamisega
kitse@@
kiga
jõhkr@@
jäämise
julgeolekunõukogu
juhus
juhtuma
juhiksin
istanis
häbimärg@@
hoides
hald@@
gemini
fu@@
fraktsioonidega
elutähtis
ehitama
eda@@
dial@@
daksin
bas@@
avanud
atusest
asjaomastes
aruandele
arendustegevust
apä@@
alustamine
adust
abu@@
Varjupaiga@@
Rap@@
Maurita@@
Kyi
Gün@@
Gom@@
Cappato
Campania
Albertini
3,5
ülesehitamiseks
ühinemisläbirääkimised
õitsengu
võitis
võimudele
välismaale
veinide
vastuvõetamatuks
vastutustunnet
variraportööride
valimist
valdava
vaiki@@
vaatan
uuendamise
usuvabadus
uskumatult
usite
tüübik@@
täidaksid
tuunik@@
turismis@@
tistika
teisigi
teene
teadlasi
tavatesse
taluda
tahaksid
taaskäivita@@
taar@@
sisulise
sisalduva
servi@@
sellekohase
seletus@@
ringlus@@
rikkudes
retsepti
retoorika
reguleerimisalasse
regulatsioon
rajama
rahvastele
puudutavates
puudutasid
propaganda
pisi@@
piirama
pidage
pestitsiidi@@
pensionid
parajasti
pannes
pakkus@@
pagulased
osapoole
olümpi@@
olusid
olulisest
nõutav
nõuaks
nähtused
niipalju
ng@@
metsatulekahjude
madega
läheda@@
liidust
lepitusmenetluse
laiemat
lahendusega
lahendanud
laevatehaste
külje
kõrgeimal
kättesaadavate
käsitlusviis
käsitlus@@
kultuurist
kujundama
kriisidele
konservatiivi@@
kompromissini
kohene
kliimale
kindlustunde
kindlustatud
keskkonnasõbralike
kasutatavaid
kasutaksid
kangel@@
juure@@
julgeolekuga
itähele@@
istuses
integreerimine
indus@@
illusioon@@
ilah@@
ikes
iial
ideele
hinnanud
hilise@@
halvenemine
gn@@
ghi
faasis
eurooplastest
ettevalmistamine
erinevustest
erakorraliste
endiga
eluks
elektrooni@@
elav
eelnenud
dokumendile
dat
börsi@@
avas@@
avalik-õigusliku
avaldustele
arvule
areneva
andmisele
allkirj@@
alistlik
alistide
abikaasade
aalide
Tugi@@
Seire@@
Rumeeniat
Madalmaad
Lynne
Luksemburgi
Liiga
Dam@@
Angeli@@
73
64
140
&apos;iga
že@@
Šotimaal
õus@@
õppimise
wit@@
väljavaade@@
vali
ster@@
riigiti
pee@@
lun@@
hau@@
graafi@@
eu@@
eelar@@
dent
den
abin@@
Wa@@
Kac@@
HIV@@
El@@
Bosni@@
Barroso@@
Ah@@
3-@@
130
viisile
vastavus@@
plahva@@
pia
peasekre@@
parlamen@@
opi@@
oc@@
need@@
lara@@
lahend@@
kurs@@
järj@@
informe@@
impe@@
hoop@@
etan@@
Yor@@
Oettinger
International
Hu
Gollnis@@
Ev@@
Busut@@
Al
9,@@
50@@
5000
2014
õltu@@
viks
vein
terro@@
star@@
sotsialis@@
reg@@
oomas
nõukogu@@
maksimaal@@
ktsion@@
füü@@
ers
aria
andr
ametivõimu@@
Vah@@
Uganda
Pan@@
Nige@@
Kris@@
Esi@@
EURO@@
Colombia
Ander@@
5,@@
üksu@@
wi@@
välised
tulekahju@@
rühmi@@
pani@@
origin@@
nah@@
maalse
ly
ling@@
lates
ive
finantsteen@@
endeid
elundi@@
eesmärgi@@
alite
Traut@@
Slova@@
Sever@@
Roure
Ou@@
Len@@
H1N1
Euroba@@
EN
EEA@@
Argen@@
21.@@
ér@@
ähe@@
tähtsu@@
trad@@
tape@@
rahastu
poe@@
ple@@
maal@@
kemika@@
ider
identi@@
dump@@
bad
ara
alia
Valenci@@
South
Ram@@
Natura
Lampedusa
Klaus
Jac@@
IP@@
Brüssel@@
Bernd
350
ú@@
vin@@
vaheli@@
tõuse@@
seem@@
sc@@
reost@@
pinge
paradig@@
orite
oline
mäs@@
mone@@
mala@@
kontrolliko@@
emale
ek
dete
bet@@
asse@@
anon@@
abinõ@@
Viviane
Piebalg@@
Grossetête
Garrido
Eh@@
EP
97
900
79
varaj@@
skis
retsep@@
rau@@
prov@@
moti@@
kõnealu@@
kui@@
kaš@@
imi
dage
ces@@
Sánche@@
Solidaarsus@@
Mün@@
Mundus
MONU@@
Le
Euro
Eras@@
Coel@@
Basel
Barack
103
ühepool@@
õnn@@
ón
tri
toimun@@
nat@@
ktii@@
idud
harul@@
hard
genud
cen@@
VK@@
Thom@@
Syl@@
Pozna@@
Marco
H
Cer@@
72
69
2.@@
ure
sihtotstar@@
rela@@
rein@@
popula@@
piimakvoo@@
mir@@
kommenta@@
istev
heame@@
elektro@@
demon@@
asjaol@@
Vas@@
Valuuta@@
SE@@
Revision
NACE
Lein@@
Gro@@
European
ński
välisteenis@@
töödel@@
tuhande
tpoolt
süsinikdioksi@@
saad@@
ps
kordselt
itsi
iden@@
fer
edaspid@@
dro@@
asjadesse
adis
Tii@@
Suurbritanni@@
Parlam@@
La
60@@
õit@@
vastupida@@
tär@@
sättu@@
strö@@
strukture@@
pessimis@@
parlam@@
lüü@@
kaal
juhtme
istle@@
hed
fitseeritud
Venezuel@@
Transnistria
Ti
TA@@
Stream
Sarko@@
Sam@@
RS
Myan@@
Javier
Diana
Catania
C6-0@@
Bil@@
170
ė@@
ääst@@
valmisole@@
univer@@
tsüani@@
sion@@
poolsetel
pides
pet
koostalitlus@@
istungjärgu@@
inspi@@
identite@@
had
gaaside
even@@
dokumend@@
ameel@@
Vietnam@@
Valgevene@@
Klaus-Heiner
Jor@@
Jean-Pierre
Institu@@
Fa@@
Com@@
76
6-@@
ub@@
tempo
teetranspor@@
status
ringlusse@@
rin
rel
psühholoo@@
kvali@@
iseär@@
infrastruk@@
idas
hoidu
heitko@@
hard@@
ego
eeskir@@
een@@
deb@@
ci
Roo@@
Piebalgs
Lamber@@
Jeruusalem@@
Ja@@
Gordon
Gauz@@
EAF@@
Dub@@
Barbara
Ast@@
Amster@@
Ali
volati@@
suhte@@
ro-@@
rit@@
raskus@@
ood
neurodegener@@
men
lasti
kredii@@
jus
heitega
gram@@
fre@@
etatud
elek@@
eeli@@
dom@@
dire@@
assotsi@@
Weber
Suda@@
Schmid@@
SOLVIT@@
Kel@@
Jää@@
EUF@@
Doris
Ankara
92
74
290
vai@@
vaband@@
tööst@@
tumis@@
tooriu@@
süsi@@
rääk@@
oloogia
olevatel
lorome@@
kolled@@
hiks
gel
galt
for
dol@@
brone@@
Wei@@
Tä@@
Salva@@
Martin@@
Kozloduy
Kah@@
Jia
Cal@@
Berès
Adri@@
2000-@@
ükste@@
vuste
vile
vaesus@@
täiskogu@@
süg@@
natu@@
meta@@
juhtun@@
hukkamõ@@
hoiu
gas@@
frastru@@
embargo
ehit@@
cki
ardo
ajuti@@
Wat@@
Sven@@
Pöttering
Philippe
Pal@@
Mathieu
MO@@
ME@@
Ly@@
Kaubandus@@
Karl-Heinz
Indon@@
Dar@@
Buzek
Angelilli
ín
ze
velt
veel@@
varjupaig@@
turvalisu@@
toori@@
tle
teenuse@@
taa@@
silise
redi@@
pih@@
pati@@
maksuparadiis@@
lit@@
lendu@@
l-@@
jate@@
interne@@
ica
dy
dimin@@
bör@@
ajavah@@
absol@@
abinõu@@
Václav
Ve@@
Solvency
Sc@@
Paolo
Mul@@
Monnet
Medina
Lewandowski
Johannes
Goe@@
García
Flautre
E-@@
Charles
CE@@
Bö@@
Brok
Bi@@
23.@@
15-@@
uri@@
töös@@
tulevi@@
tseda
reitinguagentuuri@@
og
nel
mitmes@@
miinimu@@
ich@@
him@@
gused
gri@@
diagnoo@@
bloka@@
astabiil@@
assotsia@@
aside
amp@@
Reinfeldt
Paul
Pas@@
Ortega
Nig@@
Mubar@@
Kõ@@
Kor@@
Ken@@
Jo
Dalli
Bruno
Bend@@
Austri@@
84
üs@@
väljavaa@@
vise@@
usõ@@
tuumarel@@
troll
traal@@
sag@@
riigis@@
privi@@
nälja@@
nenud
kordis@@
kool@@
jõhk@@
industri@@
idet
esia
edusam@@
dida@@
arutel@@
ajalu@@
Watson
Tou@@
Thomas
Peter@@
Pervenche
Mus@@
Klin@@
Guantánam@@
Gabriele
Fernan@@
Ben
15.00
12.@@
115
öl@@
vaieldam@@
tär
tril@@
settepane@@
rand@@
radioaktiiv@@
produktiiv@@
oto@@
mos@@
lairi@@
koordin@@
konsu@@
kokkuleppe@@
kia
kerki@@
jed
hob@@
dida
bias
bes
bal
ano
anemise
Va@@
Tob@@
Taiwan@@
Salafranca
Ren@@
Mehhi@@
Mandelson
Larosière
Han@@
Gá@@
Erika
Dan@@
Barcel@@
-P@@
vastuol@@
vajadus@@
sekre@@
religioo@@
read
rates
rahvusvaheli@@
quo
nation@@
kinud
kantse@@
ister
harmon@@
enil
bürokra@@
ami
Sierra
Por@@
Internet@@
For@@
Edit
Des@@
DC
C6-00@@
vesi@@
usz
ur
tos
soor@@
pes
parandu@@
min
ley
labor@@
lab@@
ji@@
itäh
ire@@
hää@@
gar@@
entusias@@
deba@@
che
bilans@@
Vondra
Tun@@
Schen@@
Resolu@@
Rasmus@@
Pöt@@
P-@@
Ob@@
Mand@@
Lambsdor@@
Kosov@@
Interne@@
Gilad
Fjell@@
Campan@@
Brüsse@@
Bern@@
Ayala
ø@@
vägival@@
uss
tikust
stan
soon
sand@@
põhjenda@@
palj@@
o-@@
mud
kõrgharid@@
got
eg@@
ameelt
Xynthia
Uni@@
Somaali@@
Lõuna-Ossee@@
Kinga
Jeggle
Gay
Finan@@
Eritrea
CAR@@
Armeen@@
750
ław
á
vanud
tat
sät@@
ruses
rat@@
pärastlõun@@
pruu@@
protektsion@@
piimak@@
name
minud
keskkonnas@@
itse
hot
eerimis@@
dor
ck
alis
Verhof@@
VV@@
Saryusz-Wolski
Sahara
SA
Reimer
Leon@@
Laperrouze
Karab@@
Gucht
Frankfur@@
C6-04@@
94
2050
2004-@@
193@@
çois
zio
umis
tõenäo@@
tõenä@@
teisi@@
sääste@@
polis
oria
kodanikuühiskon@@
kiid@@
ger@@
biom@@
atuks
ahu
Schmit@@
Pri@@
Per@@
Mun@@
Madal@@
Hans-Peter
Garriga
Est@@
ENISA
Doon@@
Chris
114
Špid@@
ę@@
uimas@@
tam@@
tagakius@@
sla@@
pass
parado@@
metoo@@
laial@@
itusi
haruld@@
gos
fana@@
ester@@
dela@@
bou@@
ary
arja@@
aduste
adop@@
Shar@@
SEPA
Posselt
Muscardini
London@@
Kare@@
Capoulas
4-@@
123
õigusak@@
ó
tz
tund
seu@@
porte@@
per
nõus@@
lühik@@
ling
kootiku@@
iss@@
ique
gelt
formu@@
ero@@
distan@@
bet
West@@
Srebrenica
Rad@@
Parlamend@@
Nieble@@
Ney@@
Méndez
Kyo@@
Kroes
Inim@@
Fig@@
Chişin@@
Blok@@
Battisti
AM@@
či@@
ć
ço@@
tsiaal@@
stra@@
s-@@
off@@
nakse
minus
kärbe@@
kutsed
inc@@
ikus
idž@@
Van@@
Tor@@
Jarzembowski
Io@@
IV
Fava
Euro-@@
Dé@@
30-@@
2010-@@
Ţicău
õuete
ça
võimega
villa@@
veeb@@
pus@@
pos@@
oku@@
mööda@@
moon
loom
lal
konstru@@
istand@@
instru@@
elektroonikasead@@
dor@@
demen@@
Zapata
Wallis
Times
Ossee@@
Medvede@@
Marko@@
Madagas@@
Laurent
Jerzy
IA@@
Harbour
Estrela
Deuts@@
Dalai
DP
Chatzimar@@
Ang@@
Al-@@
wski
war@@
tsü@@
rases
prospe@@
mber@@
läbimõ@@
kse
juurdepää@@
isam@@
hile
evi@@
divid@@
aliseerumisega
Xiaobo
UNESCO
Turmes
Tony
Taiwan
Sin@@
Schengen
Sacconi
Kou@@
Kiri@@
Gy@@
Gil@@
Eurosta@@
EX@@
EGNOS
EASA
Cesare
Castro
Ash@@
02
ühemin@@
ör@@
wa
väli@@
tsionaal@@
trau@@
testa@@
ski@@
rul@@
resõidu@@
paranduseel@@
minis@@
mend
kos
kontserni@@
kontse@@
kirjaga
hiig@@
gener@@
fia
eron@@
dina
best
anim@@
Vol@@
Ukra@@
Taj@@
Mla@@
Jä@@
Iraag@@
Chávez
Brown
Baringdor@@
Ay@@
Atalanta
Adam@@
ääne
zu
sm@@
registr@@
re-@@
kahetsus@@
humanitaaro@@
eem@@
dik
chin@@
alaad@@
Tän@@
Tava@@
Száj@@
Stockhol@@
Sol@@
President
Khadraoui
EFSA
Díaz
Bhutto
Andrikien@@
9.@@
2007-@@
125
12-@@
ň@@
õnnit@@
voli
vangu@@
tekst@@
tasuks
rase
ous@@
möödapääs@@
lähim@@
laid
jalg@@
initsi@@
gol@@
chil@@
bon
Wallström
Surj@@
Sil@@
Nas@@
Motors
Moh@@
MED@@
IL@@
Higg@@
Harms
Eur@@
280
0.@@
zi@@
ung@@
tera
susta@@
pensi@@
näite@@
metro@@
likkus@@
kolman@@
enomen@@
bac@@
WHO
Vassiliou
Süü@@
Stav@@
Roh@@
Prodi
Prestige
Pand@@
OLA@@
Maro@@
Lõun@@
Junilistan
Hök@@
Gö@@
Cres@@
Audy
2014-2020
160
1049
&apos;t
õigu@@
wska
vastastik@@
tervishoi@@
tagajärge@@
suude@@
stres@@
sou@@
repatri@@
rekla@@
rehabili@@
of@@
mer
läbirää@@
liam@@
kindlaks@@
iner@@
ikind@@
fal@@
eski
dilemma
detse@@
cio
artis@@
anaab@@
V-@@
Tiibe@@
Schaldemose
SOLVIT
Mera
Medvedev
IAS@@
Hitle@@
Hercz@@
Head
Gur@@
Gie@@
Frat@@
Fraga
FAO
Colom@@
C6-02@@
Ad@@
ï@@
vul@@
tööhõi@@
tsunami
tias
taalse
staadi@@
ric@@
ov
nimet@@
isev
ino@@
ez
etapi@@
ella
ehhan@@
avalt
agre@@
Stub@@
Sen@@
Sac@@
SES@@
Rompu@@
Mot@@
Migu@@
Lichten@@
Kro@@
Janu@@
Hor@@
Cohn-B@@
CO
Bec@@
1325
ő
tia
resid@@
põhim@@
punk@@
ophi@@
nn@@
muta@@
miner@@
lon@@
laiald@@
kil
gip@@
etõ@@
esole@@
esed
diabe@@
chti
autom@@
ahva@@
adusi
Vo@@
VIS
Tase@@
Rwanda
Putin
Pali@@
PEACE
McCar@@
Marie
Jen@@
ITS
Graefe
Gauzès
Fland@@
Constan@@
BON@@
Ama@@
50-@@
180
136
ő@@
â@@
tsil
tron@@
transa@@
ská
serti@@
progress
petitsioon@@
peli
led
in-@@
gro@@
gest
Savary
Saraje@@
Sab@@
Prü@@
Pap@@
Orlando
Mur@@
Mandel@@
Lamfalussy
GNS@@
Frassoni
AS
2008-2013
108
za@@
visid
ven
varjupa@@
tänusõ@@
tsenud
tho@@
sale
riigipea@@
rias
reži@@
ressurs@@
que
oodus@@
misid
les@@
kommer@@
kivis@@
forma@@
fan
dumping
atakse
apüü@@
ameet@@
ah
agen@@
aam@@
Tannock
Tanno@@
Stock@@
Rasmussen
Pre@@
Podim@@
Philip
Mid@@
Kall@@
IASB
Guinea-Bissau
Galile@@
Gah@@
GCC
FL@@
Eurostat
Eritre@@
Corbett
Ce@@
C7-02@@
Boel
Blair
Benazir
Ban
8-@@
tade
süüdimõ@@
reserve@@
red@@
ora
mapane@@
kodan@@
isse@@
idis
gis@@
fantasti@@
embr@@
degra@@
bin@@
ass@@
asias
alina
agri@@
Ul@@
Strasbourg
Schly@@
Sarajevo
PM@@
Oet@@
Mora@@
Mem@@
Mavrom@@
Ki-@@
Istanbu@@
Henn@@
Győri
Georgieva
Este@@
Erdoğ@@
Eb@@
Chá@@
CD@@
Bene@@
Ahmadine@@
60-@@
11.30
1.@@
..
č
ökom@@
vitatud
vandus@@
ussi@@
tuhan@@
tani
sõrme@@
suseks
sing@@
run@@
reli@@
reig@@
prior@@
parlamendiliik@@
oper@@
oloo@@
like@@
kaks@@
inno@@
illusi@@
gal
femin@@
elektrijaama
bri
ajastu@@
UNH@@
Toidu@@
RAP@@
Polledo
Mah@@
Leinen
Lambert
Ker@@
GNSS
ETA
EGF
Delors
Batzeli
147
138
112
08
01
şo@@
tõste@@
tsiteer@@
tsiidide
trolli
shire
sep@@
sene
seisukoh@@
saak
realis@@
pru@@
patent
paljus@@
oo
nüüd@@
lava
internet
ij@@
gru@@
dorkov@@
bile
Topolánek
Ombudsman
Musharra@@
Mumba@@
Krist@@
Jørgen@@
Joh@@
Il@@
Ign@@
IR@@
Hans-@@
ERT@@
EA
Buze@@
186
09@@
võide@@
veto
tundu@@
tole@@
tihed@@
semes@@
põhikir@@
pika@@
läbivaa@@
leping@@
lahingumoona
koal@@
etoot@@
Wiki@@
TR@@
Singa@@
SKT@@
Reinfel@@
Pil@@
Pierre
Papastam@@
Panayotopoulos-Cassi@@
Orbán
Lulling
LTTE
IPCC
IMO
ICA@@
Gbagbo
Clin@@
C6-03@@
Almun@@
1a
õnu
ye@@
wic@@
ska
rese@@
preten@@
oligo@@
modu@@
medit@@
maailmasõ@@
loomas@@
loe@@
kosmeeti@@
järe@@
istu
intera@@
imeta@@
hail
ges@@
deem@@
Un@@
Trü@@
Tab@@
Sócra@@
Roth-Behrend@@
Meh@@
Kimberley
Juncker
Hezbollah
Hed@@
HI@@
Gualti@@
Gibral@@
Financial
Eu@@
Eri@@
Diamandouros
Crowley
COP
Br@@
Bowles
Airbus
168
Á@@
mää@@
manner
kolle@@
kiide@@
kassett@@
jätk@@
heitkogu@@
finantsteh@@
finantshu@@
embar@@
bed
amär@@
Vidal-Quad@@
Ug@@
Swobo@@
Stavra@@
Shi@@
Qimonda
Pos@@
Lag@@
Hugo
Fri@@
Faj@@
EI
Det@@
CN@@
Boeing
BA
Anna@@
AL@@
19.@@
175
ż@@
ř@@
Ö@@
Ä@@
ş
•
Ž@@
Ţ@@
q@@
Č@@
í
ō@@
ý
ä
à@@
σ@@
ţ@@
ś@@
Í@@
W
q
ė
É@@
ł
Å@@
ç@@
=
è
Ü
ρ@@
ε@@
α@@
ë@@
ī@@
ß
_
Ḩ@@
ò
τ@@
ã@@
Ó
Α@@
·
ź@@
ê@@
Ő@@
ö
ˮ
ŏ@@
ń
ü
@
ί@@
Y
J
ς
ι@@
Ş@@
į@@
Z
μ@@
δ@@
Ł@@
ă
º@@
ν@@
ǎ@@
Ó@@
υ@@
ι
ľ@@
ē@@
Đ@@
ý@@
Q
π@@
η
ķ@@
ą@@
ô@@
*
ο@@
о@@
а@@
χ@@
ľ
ı@@
ğ@@
т@@
λ@@
Ν@@
Ś@@
ą
с@@
н@@
е@@
κ@@
Β@@
ņ@@
û@@
î@@
æ@@
​
ḩ
έ@@
Ι@@
Ι
ī
ě@@
±
р@@
и
а
η@@
ζ@@
γ@@
ή@@
Ο@@
ë
ш@@
ч@@
л@@
к@@
в@@
ό@@
ρ
ή
ά
Ε@@
ż
ę
ã
²
¡
\
ό
я
у@@
й
з@@
е
М@@
ώ
ύ@@
ο
ε
β@@
Υ@@
Τ@@
Π@@
Κ@@
ə@@
ź
ť@@
Ř@@
ŗ@@
Ľ@@
İ@@
Ģ@@
ě
đ@@
þ@@
ú
ù@@
õ
Ú@@
×
½
&@@
舃
眠@@
≤
ḩ@@
ь@@
ь
ы
п@@
о
м@@
ж@@
д@@
г@@
в
Т@@
П@@
О@@
Н@@
А@@
ό
φ@@
ξ@@
ν
β
Ο
Μ@@
˚
ș@@
ǎ
ŵ@@
ų@@
ū
ţ
œ@@
ō
ň
ņ
ŀ@@
ı
į
ģ@@
Ć@@
ā
ø
ò@@
ñ
ì
å@@
å
â
Ý@@
Ö
Ð@@
É
Ç@@
º
¹
µ@@
§
£